<unk>	0
<s>	0
</s>	0
▁a	-0
in	-1
▁t	-2
▁s	-3
▁o	-4
ing	-5
▁b	-6
it	-7
▁w	-8
he	-9
▁p	-10
an	-11
re	-12
▁c	-13
le	-14
er	-15
▁on	-16
▁the	-17
at	-18
▁of	-19
▁in	-20
ar	-21
▁an	-22
ro	-23
▁f	-24
is	-25
▁m	-26
ith	-27
▁with	-28
▁h	-29
▁g	-30
en	-31
▁d	-32
▁l	-33
▁and	-34
▁to	-35
al	-36
▁st	-37
om	-38
ra	-39
ding	-40
es	-41
on	-42
ed	-43
▁is	-44
ck	-45
or	-46
et	-47
ow	-48
la	-49
un	-50
▁n	-51
ir	-52
▁man	-53
op	-54
as	-55
ting	-56
▁sit	-57
id	-58
oo	-59
ch	-60
all	-61
up	-62
▁ne	-63
il	-64
▁th	-65
el	-66
ot	-67
ur	-68
ig	-69
▁wh	-70
ut	-71
▁stan	-72
▁sitting	-73
ic	-74
ge	-75
ol	-76
ers	-77
▁tw	-78
▁two	-79
▁are	-80
king	-81
us	-82
ide	-83
▁at	-84
▁be	-85
ite	-86
▁pe	-87
her	-88
ri	-89
▁e	-90
ab	-91
▁re	-92
▁tra	-93
ard	-94
▁co	-95
▁standing	-96
ss	-97
ying	-98
ople	-99
▁people	-100
▁ro	-101
xt	-102
▁sk	-103
▁wom	-104
▁next	-105
ad	-106
eb	-107
▁v	-108
▁pla	-109
▁bo	-110
▁white	-111
able	-112
▁k	-113
▁do	-114
▁woman	-115
▁it	-116
lo	-117
▁stre	-118
und	-119
ile	-120
▁pl	-121
ff	-122
ood	-123
▁street	-124
▁table	-125
▁hol	-126
ome	-127
▁fro	-128
▁fi	-129
ver	-130
▁that	-131
ve	-132
▁par	-133
▁gro	-134
▁sh	-135
▁some	-136
▁y	-137
▁ch	-138
▁la	-139
▁holding	-140
▁top	-141
▁gra	-142
ce	-143
oard	-144
nt	-145
ate	-146
▁sm	-147
▁lar	-148
▁large	-149
own	-150
erson	-151
▁person	-152
ant	-153
▁cat	-154
am	-155
▁bat	-156
▁ten	-157
oun	-158
nis	-159
▁group	-160
and	-161
▁tennis	-162
▁up	-163
▁pi	-164
ach	-165
▁clo	-166
igh	-167
eld	-168
▁car	-169
um	-170
ion	-171
▁down	-172
che	-173
▁ri	-174
▁wat	-175
ul	-176
▁field	-177
▁train	-178
▁near	-179
▁bus	-180
ke	-181
▁out	-182
▁fl	-183
se	-184
ree	-185
ign	-186
▁side	-187
▁dog	-188
ure	-189
▁ra	-190
▁front	-191
▁bu	-192
▁bla	-193
▁sign	-194
▁park	-195
▁black	-196
ind	-197
▁plate	-198
st	-199
▁wal	-200
▁sur	-201
▁se	-202
▁small	-203
▁his	-204
▁buil	-205
ug	-206
ack	-207
▁building	-208
▁room	-209
▁ph	-210
round	-211
row	-212
▁riding	-213
ight	-214
▁bas	-215
▁loo	-216
room	-217
▁grass	-218
ay	-219
ell	-220
▁bl	-221
ain	-222
▁com	-223
reen	-224
▁sn	-225
▁red	-226
ue	-227
im	-228
▁has	-229
oung	-230
one	-231
▁young	-232
▁by	-233
side	-234
pt	-235
▁water	-236
▁bath	-237
▁kit	-238
▁surf	-239
▁playing	-240
red	-241
▁r	-242
ving	-243
ph	-244
ink	-245
▁snow	-246
air	-247
▁play	-248
▁food	-249
zz	-250
▁po	-251
eball	-252
▁baseball	-253
▁for	-254
▁air	-255
ter	-256
▁walking	-257
board	-258
ru	-259
▁hor	-260
cle	-261
▁pizz	-262
ct	-263
▁bathroom	-264
▁her	-265
▁bed	-266
▁green	-267
ffe	-268
ycle	-269
▁while	-270
▁ot	-271
▁gi	-272
▁other	-273
▁mot	-274
▁li	-275
▁j	-276
▁pizza	-277
ran	-278
ture	-279
▁wood	-280
▁skat	-281
▁blue	-282
umb	-283
▁ele	-284
▁comp	-285
▁pic	-286
irt	-287
ity	-288
▁z	-289
age	-290
▁back	-291
ds	-292
▁looking	-293
aring	-294
chen	-295
▁there	-296
▁kitchen	-297
▁bear	-298
▁ben	-299
▁des	-300
▁parked	-301
▁skateb	-302
tle	-303
ugh	-304
▁ball	-305
▁gira	-306
▁clock	-307
ie	-308
▁wa	-309
▁over	-310
▁picture	-311
▁le	-312
▁motor	-313
▁road	-314
ame	-315
▁boy	-316
ilet	-317
▁skateboard	-318
▁he	-319
▁toilet	-320
▁city	-321
▁three	-322
▁beach	-323
ptop	-324
▁comput	-325
▁laptop	-326
irl	-327
ake	-328
▁dis	-329
▁girl	-330
get	-331
▁we	-332
▁eat	-333
phant	-334
ent	-335
▁elephant	-336
ild	-337
rel	-338
ep	-339
▁men	-340
▁ski	-341
▁game	-342
▁tow	-343
▁con	-344
pp	-345
led	-346
rella	-347
▁umb	-348
▁umbrella	-349
cks	-350
▁coup	-351
▁couple	-352
▁motorc	-353
▁pas	-354
▁wind	-355
▁sits	-356
▁sl	-357
ebra	-358
▁zebra	-359
▁motorcycle	-360
ong	-361
▁bench	-362
▁sever	-363
▁computer	-364
dy	-365
▁player	-366
▁several	-367
▁from	-368
▁desk	-369
▁child	-370
▁al	-371
▁flying	-372
▁she	-373
tain	-374
ld	-375
lass	-376
ous	-377
▁wearing	-378
▁as	-379
▁chair	-380
ub	-381
▁window	-382
rown	-383
rough	-384
▁light	-385
▁hand	-386
ine	-387
▁through	-388
▁sink	-389
ice	-390
▁horse	-391
▁wooden	-392
▁sc	-393
▁wall	-394
▁phone	-395
ill	-396
ane	-397
▁sand	-398
▁board	-399
▁int	-400
▁their	-401
▁area	-402
pen	-403
▁old	-404
▁brown	-405
▁around	-406
▁outside	-407
▁lit	-408
▁laying	-409
▁und	-410
▁sp	-411
▁one	-412
▁under	-413
ellow	-414
▁stop	-415
▁fr	-416
▁bir	-417
▁bow	-418
▁cake	-419
▁yellow	-420
▁glass	-421
▁oran	-422
ull	-423
oto	-424
▁photo	-425
▁boat	-426
ks	-427
▁open	-428
▁ban	-429
▁cour	-430
ap	-431
▁te	-432
▁tree	-433
▁eating	-434
▁living	-435
▁col	-436
▁fire	-437
ery	-438
ee	-439
▁lot	-440
▁bowl	-441
hind	-442
▁behind	-443
bo	-444
▁fo	-445
ase	-446
ort	-447
qu	-448
les	-449
▁court	-450
▁ta	-451
▁close	-452
▁banan	-453
▁de	-454
ross	-455
▁di	-456
▁tru	-457
way	-458
▁each	-459
cc	-460
pla	-461
▁sw	-462
▁surfboard	-463
ation	-464
▁flo	-465
▁bun	-466
ground	-467
▁tre	-468
vered	-469
▁little	-470
▁cow	-471
▁sky	-472
illed	-473
▁giraffe	-474
▁fris	-475
▁covered	-476
▁ve	-477
▁frisb	-478
▁so	-479
alk	-480
▁trees	-481
ses	-482
▁br	-483
▁mo	-484
▁show	-485
▁very	-486
▁cell	-487
▁this	-488
gether	-489
▁together	-490
▁airp	-491
uit	-492
▁coun	-493
ly	-494
▁en	-495
ction	-496
▁many	-497
eat	-498
▁fen	-499
ets	-500
walk	-501
▁filled	-502
▁orange	-503
▁frisbee	-504
ry	-505
▁off	-506
▁cars	-507
▁truck	-508
ors	-509
ped	-510
▁rack	-511
ag	-512
ady	-513
ves	-514
▁hy	-515
▁displa	-516
▁background	-517
dr	-518
▁abo	-519
dle	-520
▁run	-521
▁hydr	-522
iew	-523
▁moun	-524
▁inside	-525
▁bird	-526
▁hydrant	-527
if	-528
▁kite	-529
ush	-530
▁sidewalk	-531
▁view	-532
ip	-533
uch	-534
▁big	-535
▁parking	-536
▁cut	-537
▁women	-538
ump	-539
▁sheep	-540
ts	-541
▁app	-542
▁ted	-543
▁shirt	-544
▁teddy	-545
▁dri	-546
▁fence	-547
▁display	-548
▁wave	-549
▁bi	-550
rent	-551
▁stands	-552
▁ma	-553
rick	-554
▁its	-555
▁pie	-556
▁ref	-557
▁into	-558
▁suit	-559
▁tower	-560
▁flow	-561
▁bunch	-562
▁sto	-563
▁go	-564
irro	-565
▁mirro	-566
▁wi	-567
▁stand	-568
ted	-569
▁sandw	-570
▁head	-571
▁skis	-572
▁tall	-573
do	-574
▁mirror	-575
ment	-576
sing	-577
ich	-578
ffic	-579
orm	-580
▁met	-581
▁mid	-582
▁diffe	-583
▁traffic	-584
▁different	-585
ffes	-586
▁counter	-587
cean	-588
▁bot	-589
▁ocean	-590
▁tracks	-591
▁giraffes	-592
ner	-593
ook	-594
▁dirt	-595
ey	-596
▁zebras	-597
ace	-598
imal	-599
▁racket	-600
▁mountain	-601
ress	-602
▁along	-603
▁bro	-604
▁animal	-605
ches	-606
ruit	-607
▁elephants	-608
ching	-609
▁horses	-610
▁stu	-611
etting	-612
▁couch	-613
▁fruit	-614
▁swing	-615
ren	-616
▁plat	-617
▁hot	-618
▁pre	-619
▁floor	-620
ang	-621
ouse	-622
▁grassy	-623
▁im	-624
ated	-625
mp	-626
▁full	-627
▁taking	-628
ies	-629
▁rest	-630
▁airpl	-631
▁dr	-632
▁jump	-633
▁station	-634
uring	-635
other	-636
vel	-637
▁sa	-638
iling	-639
rol	-640
▁ha	-641
▁another	-642
▁ar	-643
▁bab	-644
kes	-645
▁bananas	-646
ark	-647
▁middle	-648
▁fe	-649
▁cam	-650
▁baby	-651
▁hill	-652
▁sandwich	-653
▁che	-654
▁being	-655
▁gu	-656
▁cor	-657
▁veget	-658
te	-659
ick	-660
▁graz	-661
▁long	-662
▁dress	-663
ult	-664
erat	-665
▁day	-666
▁vase	-667
▁stuff	-668
▁ad	-669
▁un	-670
▁airplane	-671
▁hit	-672
▁sun	-673
▁ground	-674
are	-675
ven	-676
▁us	-677
▁signs	-678
▁flowers	-679
▁children	-680
▁ser	-681
▁cont	-682
hing	-683
▁bes	-684
ari	-685
ces	-686
ler	-687
rig	-688
ugg	-689
▁ready	-690
▁pass	-691
▁cur	-692
▁image	-693
▁vegetable	-694
▁key	-695
▁cross	-696
ched	-697
oli	-698
▁herd	-699
ning	-700
▁box	-701
▁hat	-702
der	-703
▁pole	-704
▁camer	-705
▁plane	-706
rigerat	-707
▁refrigerat	-708
▁slop	-709
▁bic	-710
▁tie	-711
▁wii	-712
▁bike	-713
▁hang	-714
▁them	-715
▁vari	-716
▁beside	-717
▁keyboard	-718
▁past	-719
▁brocc	-720
▁camera	-721
▁stuffed	-722
▁broccoli	-723
▁above	-724
▁em	-725
▁wor	-726
▁four	-727
▁travel	-728
▁doing	-729
cor	-730
▁ac	-731
▁cup	-732
▁crow	-733
rying	-734
▁grazing	-735
▁refrigerator	-736
ideo	-737
▁snowy	-738
▁video	-739
▁skiing	-740
▁control	-741
▁buildings	-742
▁cl	-743
▁pro	-744
▁wait	-745
▁mon	-746
▁lugg	-747
▁crowd	-748
▁luggage	-749
uts	-750
▁lo	-751
▁cows	-752
▁across	-753
▁tv	-754
▁guy	-755
▁bicycle	-756
▁driving	-757
ust	-758
▁color	-759
▁sho	-760
▁tele	-761
▁during	-762
hes	-763
vis	-764
▁cle	-765
▁piece	-766
▁slope	-767
▁decor	-768
▁bottle	-769
▁glasses	-770
▁door	-771
▁bears	-772
ade	-773
▁rac	-774
▁pain	-775
eng	-776
▁who	-777
▁high	-778
▁corner	-779
urn	-780
sh	-781
ten	-782
▁kid	-783
▁dogs	-784
▁vegetables	-785
idge	-786
▁empt	-787
▁oven	-788
▁prep	-789
▁posing	-790
▁passeng	-791
▁per	-792
▁rem	-793
▁empty	-794
ac	-795
ms	-796
▁pink	-797
▁monit	-798
▁banana	-799
ak	-800
vision	-801
▁track	-802
▁night	-803
▁animals	-804
▁looks	-805
▁skate	-806
▁trick	-807
ess	-808
▁walk	-809
ful	-810
▁players	-811
▁traveling	-812
▁television	-813
▁me	-814
ries	-815
▁fore	-816
▁going	-817
▁lights	-818
▁topped	-819
▁contain	-820
▁getting	-821
▁din	-822
▁don	-823
▁watching	-824
▁pap	-825
▁tal	-826
▁pair	-827
▁plates	-828
▁hanging	-829
ored	-830
quet	-831
ool	-832
▁ag	-833
▁holds	-834
▁kn	-835
▁cab	-836
▁wine	-837
▁bre	-838
▁pat	-839
▁socc	-840
ian	-841
▁drink	-842
▁screen	-843
▁soccer	-844
▁rail	-845
▁boats	-846
▁chairs	-847
▁colorful	-848
gg	-849
form	-850
▁face	-851
▁remot	-852
▁row	-853
ans	-854
▁pot	-855
▁rid	-856
pe	-857
▁river	-858
▁smiling	-859
ank	-860
▁carro	-861
▁stove	-862
▁jumping	-863
▁running	-864
aur	-865
ese	-866
▁all	-867
▁racquet	-868
▁talking	-869
▁swinging	-870
▁home	-871
▁again	-872
▁inters	-873
▁various	-874
▁bag	-875
▁bar	-876
▁lin	-877
aurant	-878
▁cabin	-879
▁using	-880
▁against	-881
▁restaurant	-882
ast	-883
▁can	-884
▁meat	-885
ection	-886
leep	-887
▁doub	-888
▁intersection	-889
▁lea	-890
▁book	-891
▁slic	-892
▁kites	-893
▁whe	-894
▁motorcycles	-895
ced	-896
▁cutting	-897
▁waiting	-898
▁set	-899
▁busy	-900
▁tray	-901
▁skier	-902
▁surfer	-903
▁boo	-904
▁stat	-905
▁about	-906
▁paper	-907
▁som	-908
▁like	-909
▁suitc	-910
▁seat	-911
cl	-912
alf	-913
ings	-914
▁rain	-915
▁birds	-916
▁brick	-917
▁him	-918
▁lots	-919
▁outdo	-920
ud	-921
ges	-922
▁pit	-923
▁body	-924
▁mult	-925
▁metal	-926
▁shower	-927
▁dressed	-928
ave	-929
elf	-930
gra	-931
▁ite	-932
▁ste	-933
ething	-934
▁double	-935
▁something	-936
▁or	-937
▁zoo	-938
▁line	-939
▁male	-940
▁pull	-941
▁someone	-942
▁skateboarder	-943
▁att	-944
▁plant	-945
▁throw	-946
▁controller	-947
oth	-948
▁rock	-949
▁toward	-950
▁surround	-951
▁passenger	-952
▁house	-953
▁airport	-954
▁photogra	-955
ial	-956
▁ty	-957
▁ramp	-958
▁shel	-959
▁remote	-960
▁snowboard	-961
we	-962
ato	-963
cher	-964
▁sleep	-965
▁slice	-966
▁cheese	-967
art	-968
▁tile	-969
▁blank	-970
▁items	-971
▁lying	-972
▁colored	-973
▁way	-974
▁hands	-975
▁mouse	-976
▁showing	-977
▁umbrellas	-978
▁surrounded	-979
to	-980
ars	-981
ive	-982
▁gat	-983
▁pur	-984
▁sil	-985
phone	-986
▁dough	-987
▁dark	-988
▁post	-989
arding	-990
▁windows	-991
est	-992
raw	-993
▁ce	-994
▁bet	-995
▁look	-996
▁pile	-997
▁doughn	-998
ween	-999
▁enc	-1000
▁res	-1001
▁gray	-1002
▁lady	-1003
▁shown	-1004
▁store	-1005
▁bridge	-1006
▁between	-1007
▁surfing	-1008
▁gre	-1009
▁mic	-1010
▁pan	-1011
▁scen	-1012
▁forest	-1013
▁carrying	-1014
lic	-1015
▁carrots	-1016
br	-1017
▁jet	-1018
▁mat	-1019
aning	-1020
▁hair	-1021
▁half	-1022
▁jack	-1023
▁girls	-1024
hic	-1025
ple	-1026
▁am	-1027
▁no	-1028
▁sal	-1029
▁bran	-1030
▁fork	-1031
▁brush	-1032
▁enclo	-1033
▁lined	-1034
▁decorated	-1035
ect	-1036
▁fla	-1037
▁vehic	-1038
▁runway	-1039
▁statue	-1040
▁bedroom	-1041
▁monitor	-1042
▁painted	-1043
nic	-1044
uth	-1045
ones	-1046
▁hel	-1047
▁pol	-1048
iform	-1049
▁enclos	-1050
▁oranges	-1051
▁uniform	-1052
oon	-1053
▁ca	-1054
▁tub	-1055
▁mark	-1056
ty	-1057
iss	-1058
▁pub	-1059
▁silver	-1060
ny	-1061
ved	-1062
▁ho	-1063
▁toy	-1064
▁deck	-1065
▁made	-1066
▁meal	-1067
ooking	-1068
▁meter	-1069
▁batter	-1070
▁office	-1071
▁photograph	-1072
ife	-1073
pes	-1074
ases	-1075
▁pulling	-1076
uce	-1077
▁scene	-1078
▁outdoor	-1079
▁cabinets	-1080
▁sleeping	-1081
ash	-1082
▁ex	-1083
▁ob	-1084
eath	-1085
▁tri	-1086
ating	-1087
▁clou	-1088
aching	-1089
▁donuts	-1090
▁public	-1091
▁ed	-1092
ffee	-1093
▁grey	-1094
▁numb	-1095
▁bread	-1096
▁apples	-1097
▁coffee	-1098
▁preparing	-1099
gs	-1100
ert	-1101
ime	-1102
▁pa	-1103
▁few	-1104
▁mar	-1105
▁lake	-1106
▁stri	-1107
▁adult	-1108
▁salad	-1109
▁leaning	-1110
ft	-1111
len	-1112
▁dish	-1113
▁bright	-1114
▁coming	-1115
▁microw	-1116
▁purple	-1117
ached	-1118
▁been	-1119
▁furn	-1120
▁have	-1121
▁books	-1122
▁stick	-1123
▁waves	-1124
▁enclosure	-1125
ken	-1126
▁curb	-1127
▁mouth	-1128
▁walls	-1129
▁attached	-1130
iz	-1131
▁fri	-1132
iture	-1133
▁dining	-1134
▁making	-1135
▁suitcase	-1136
▁furniture	-1137
ble	-1138
int	-1139
ping	-1140
▁pen	-1141
▁comm	-1142
▁cook	-1143
▁feat	-1144
▁kids	-1145
▁clear	-1146
▁knife	-1147
▁rocks	-1148
▁branch	-1149
▁jacket	-1150
▁blanket	-1151
▁microwave	-1152
col	-1153
ond	-1154
▁boys	-1155
▁cand	-1156
▁edge	-1157
▁elect	-1158
▁rides	-1159
▁slices	-1160
▁pictures	-1161
▁displayed	-1162
arm	-1163
ire	-1164
ist	-1165
▁incl	-1166
▁shop	-1167
▁yard	-1168
▁sciss	-1169
▁number	-1170
▁trying	-1171
▁stopped	-1172
▁computers	-1173
▁"	-1174
top	-1175
▁dock	-1176
▁lush	-1177
▁onto	-1178
▁count	-1179
▁tooth	-1180
iti	-1181
▁seen	-1182
▁work	-1183
▁buses	-1184
▁scissors	-1185
by	-1186
jo	-1187
ale	-1188
▁fre	-1189
▁mil	-1190
ffiti	-1191
▁appl	-1192
▁enjo	-1193
inking	-1194
▁older	-1195
▁plast	-1196
▁short	-1197
▁walks	-1198
▁market	-1199
▁graffiti	-1200
els	-1201
ading	-1202
atoes	-1203
▁dire	-1204
▁wire	-1205
▁clean	-1206
▁multip	-1207
▁skiers	-1208
▁towards	-1209
▁surfboards	-1210
day	-1211
ish	-1212
met	-1213
less	-1214
▁ass	-1215
▁cloudy	-1216
▁placed	-1217
▁perform	-1218
▁crossing	-1219
▁drinking	-1220
▁multiple	-1221
eth	-1222
ley	-1223
▁gr	-1224
ance	-1225
▁wed	-1226
▁base	-1227
▁refle	-1228
▁applian	-1229
▁plastic	-1230
sp	-1231
▁not	-1232
▁squ	-1233
hered	-1234
▁shelf	-1235
▁teeth	-1236
ily	-1237
oll	-1238
▁af	-1239
ures	-1240
▁bea	-1241
▁dry	-1242
▁cats	-1243
▁hotel	-1244
▁shows	-1245
▁reaching	-1246
▁appliances	-1247
bor	-1248
ety	-1249
old	-1250
sit	-1251
▁cart	-1252
▁pick	-1253
▁shore	-1254
▁pieces	-1255
▁perched	-1256
de	-1257
ally	-1258
dern	-1259
▁gar	-1260
▁flat	-1261
▁time	-1262
▁beaut	-1263
▁eaten	-1264
▁spoon	-1265
▁modern	-1266
▁cooking	-1267
ary	-1268
ric	-1269
ming	-1270
pped	-1271
▁eng	-1272
▁equ	-1273
▁tom	-1274
neath	-1275
▁dist	-1276
▁lamp	-1277
▁ride	-1278
▁stack	-1279
▁leaves	-1280
▁underneath	-1281
▁lay	-1282
▁sch	-1283
▁wet	-1284
▁case	-1285
▁swim	-1286
▁catch	-1287
▁sandy	-1288
▁stone	-1289
▁assort	-1290
▁decker	-1291
▁school	-1292
▁beautif	-1293
▁catcher	-1294
▁working	-1295
▁monitors	-1296
▁platform	-1297
ber	-1298
oot	-1299
anes	-1300
ares	-1301
irth	-1302
▁cho	-1303
▁lap	-1304
▁part	-1305
▁bikes	-1306
▁birth	-1307
▁sunny	-1308
▁types	-1309
▁gathered	-1310
▁ur	-1311
ject	-1312
ling	-1313
▁fem	-1314
▁spe	-1315
illow	-1316
▁bask	-1317
▁tran	-1318
▁serve	-1319
▁country	-1320
▁toothbr	-1321
▁birthday	-1322
▁beautiful	-1323
▁cellphone	-1324
▁mountains	-1325
ages	-1326
ents	-1327
inal	-1328
ines	-1329
▁nin	-1330
▁beer	-1331
▁clot	-1332
▁path	-1333
▁wild	-1334
colate	-1335
▁having	-1336
▁throwing	-1337
▁chocolate	-1338
ix	-1339
▁i	-1340
ads	-1341
ats	-1342
▁cre	-1343
▁rol	-1344
tendo	-1345
▁shap	-1346
▁town	-1347
▁woods	-1348
▁helmet	-1349
▁resting	-1350
▁serving	-1351
▁brushing	-1352
▁nintendo	-1353
▁vehicles	-1354
hed	-1355
▁fac	-1356
▁fam	-1357
▁land	-1358
ipment	-1359
▁apple	-1360
▁stall	-1361
▁cattle	-1362
▁pillow	-1363
▁pasture	-1364
▁setting	-1365
▁surface	-1366
▁enjoying	-1367
▁direction	-1368
▁equipment	-1369
ips	-1370
▁ge	-1371
ames	-1372
▁egg	-1373
▁team	-1374
▁carri	-1375
▁straw	-1376
▁fridge	-1377
▁others	-1378
▁trucks	-1379
ise	-1380
sed	-1381
▁ey	-1382
▁but	-1383
▁smo	-1384
▁sub	-1385
▁van	-1386
▁just	-1387
▁nice	-1388
▁sail	-1389
▁shot	-1390
▁sing	-1391
▁after	-1392
▁flies	-1393
▁match	-1394
▁right	-1395
▁plants	-1396
▁bottles	-1397
▁curtain	-1398
▁hitting	-1399
▁doughnuts	-1400
ens	-1401
▁new	-1402
ronic	-1403
▁both	-1404
▁flag	-1405
▁they	-1406
▁bowls	-1407
▁female	-1408
▁flower	-1409
▁wedding	-1410
▁floating	-1411
▁bel	-1412
▁cra	-1413
▁see	-1414
▁sty	-1415
iding	-1416
▁dess	-1417
▁kind	-1418
▁fresh	-1419
▁fruits	-1420
▁pizzas	-1421
▁desktop	-1422
▁mounted	-1423
▁sandwic	-1424
▁variety	-1425
▁painting	-1426
▁electronic	-1427
▁toothbrush	-1428
sc	-1429
wn	-1430
ural	-1431
▁let	-1432
▁pad	-1433
▁blur	-1434
▁rice	-1435
▁take	-1436
eeding	-1437
▁dirty	-1438
▁polar	-1439
▁sauce	-1440
▁smile	-1441
▁steel	-1442
▁where	-1443
▁dinner	-1444
▁object	-1445
▁tables	-1446
▁sandwiches	-1447
rit	-1448
ides	-1449
▁end	-1450
▁hay	-1451
▁ped	-1452
tered	-1453
▁cute	-1454
▁arran	-1455
▁sinks	-1456
▁family	-1457
▁tricks	-1458
▁distance	-1459
▁doughnut	-1460
th	-1461
erc	-1462
ered	-1463
self	-1464
▁dev	-1465
▁fan	-1466
▁ham	-1467
aking	-1468
▁blen	-1469
▁frien	-1470
▁boards	-1471
▁engine	-1472
▁mother	-1473
▁candles	-1474
▁passing	-1475
▁swimming	-1476
▁containing	-1477
▁passengers	-1478
go	-1479
act	-1480
man	-1481
uge	-1482
ized	-1483
urch	-1484
▁bal	-1485
▁break	-1486
▁chick	-1487
▁pitch	-1488
▁shoes	-1489
▁takes	-1490
▁tiled	-1491
▁which	-1492
▁basket	-1493
▁church	-1494
▁pitcher	-1495
▁striped	-1496
▁watches	-1497
▁carriage	-1498
▁container	-1499
▁performing	-1500
ged	-1501
run	-1502
road	-1503
▁guys	-1504
▁pack	-1505
▁soup	-1506
▁boxes	-1507
▁chain	-1508
▁poses	-1509
▁smart	-1510
▁trail	-1511
▁cooked	-1512
▁phones	-1513
▁single	-1514
▁blender	-1515
▁chicken	-1516
me	-1517
ger	-1518
▁pr	-1519
▁qu	-1520
▁art	-1521
▁blo	-1522
▁loc	-1523
▁sof	-1524
▁draw	-1525
▁gear	-1526
▁huge	-1527
▁mach	-1528
▁port	-1529
▁vint	-1530
▁foods	-1531
▁taken	-1532
▁facing	-1533
▁moving	-1534
▁sliced	-1535
▁square	-1536
▁benches	-1537
▁reading	-1538
▁staring	-1539
▁vintage	-1540
▁controllers	-1541
io	-1542
py	-1543
ded	-1544
tub	-1545
▁get	-1546
▁put	-1547
▁was	-1548
enter	-1549
ident	-1550
ioned	-1551
▁pepp	-1552
▁step	-1553
▁donut	-1554
▁towel	-1555
▁watch	-1556
▁gather	-1557
▁kitten	-1558
▁pedest	-1559
▁shaped	-1560
▁bathtub	-1561
▁catching	-1562
▁railroad	-1563
ron	-1564
▁cr	-1565
▁ti	-1566
▁bur	-1567
▁ext	-1568
▁pal	-1569
uding	-1570
▁fash	-1571
▁gold	-1572
▁good	-1573
▁pose	-1574
▁self	-1575
▁writ	-1576
▁fries	-1577
▁games	-1578
▁center	-1579
▁picnic	-1580
▁seated	-1581
▁served	-1582
▁cabinet	-1583
▁surfers	-1584
▁suitcases	-1585
▁reflection	-1586
bb	-1587
ia	-1588
▁.	-1589
cre	-1590
dge	-1591
out	-1592
que	-1593
tom	-1594
▁ut	-1595
rist	-1596
▁fly	-1597
▁roo	-1598
▁tin	-1599
arrow	-1600
place	-1601
▁atop	-1602
▁neck	-1603
▁roll	-1604
▁topp	-1605
▁turn	-1606
▁fenced	-1607
▁subway	-1608
▁feeding	-1609
▁potatoes	-1610
▁including	-1611
head	-1612
vent	-1613
vert	-1614
wing	-1615
▁har	-1616
▁pee	-1617
▁pul	-1618
ather	-1619
▁left	-1620
▁mess	-1621
▁poin	-1622
▁trun	-1623
ations	-1624
elling	-1625
▁inter	-1626
▁poles	-1627
oarding	-1628
▁drives	-1629
▁pastry	-1630
▁pulled	-1631
▁features	-1632
▁prepares	-1633
▁restroom	-1634
▁strawber	-1635
▁toppings	-1636
▁fireplace	-1637
▁foreground	-1638
mas	-1639
ual	-1640
ical	-1641
ious	-1642
vers	-1643
▁del	-1644
▁kne	-1645
▁orn	-1646
cking	-1647
crete	-1648
uches	-1649
▁bite	-1650
▁doll	-1651
▁foot	-1652
▁happ	-1653
▁must	-1654
▁well	-1655
▁below	-1656
▁place	-1657
▁plays	-1658
▁docked	-1659
▁drinks	-1660
▁shorts	-1661
▁dessert	-1662
▁vehicle	-1663
▁concrete	-1664
▁sticking	-1665
▁skateboarding	-1666
cy	-1667
ape	-1668
ige	-1669
ults	-1670
ward	-1671
▁lid	-1672
▁low	-1673
▁ter	-1674
iness	-1675
light	-1676
▁appe	-1677
▁atte	-1678
▁free	-1679
▁indo	-1680
▁kick	-1681
▁outf	-1682
▁sofa	-1683
▁type	-1684
▁asian	-1685
▁drawn	-1686
▁event	-1687
▁giant	-1688
▁hotdo	-1689
▁stain	-1690
▁stair	-1691
ristmas	-1692
▁adults	-1693
▁advert	-1694
▁blurry	-1695
▁bottom	-1696
▁broken	-1697
▁colors	-1698
▁nearby	-1699
▁planes	-1700
▁trains	-1701
▁transit	-1702
▁pedestri	-1703
▁christmas	-1704
fe	-1705
ns	-1706
▁1	-1707
ins	-1708
mon	-1709
▁yo	-1710
ball	-1711
ddle	-1712
▁arm	-1713
▁bak	-1714
▁gla	-1715
▁sea	-1716
ddler	-1717
ional	-1718
▁away	-1719
▁fish	-1720
▁sale	-1721
▁same	-1722
▁vegg	-1723
▁wets	-1724
▁cakes	-1725
▁cream	-1726
▁ledge	-1727
▁makes	-1728
▁reads	-1729
▁space	-1730
▁carrot	-1731
▁compet	-1732
▁desert	-1733
▁wooded	-1734
▁highway	-1735
▁toddler	-1736
▁wetsuit	-1737
▁business	-1738
os	-1739
▁2	-1740
ban	-1741
ely	-1742
set	-1743
▁du	-1744
▁jo	-1745
ants	-1746
iner	-1747
stru	-1748
▁cal	-1749
▁cig	-1750
▁ind	-1751
pture	-1752
sting	-1753
▁cage	-1754
▁clut	-1755
▁cups	-1756
▁disc	-1757
▁five	-1758
▁prof	-1759
▁race	-1760
ercial	-1761
▁bever	-1762
▁cover	-1763
▁flock	-1764
▁style	-1765
▁includ	-1766
boarding	-1767
▁couches	-1768
▁friends	-1769
▁arranged	-1770
▁commercial	-1771
uc	-1772
ays	-1773
rop	-1774
unch	-1775
▁fra	-1776
▁net	-1777
▁pow	-1778
icing	-1779
▁farm	-1780
▁form	-1781
▁hold	-1782
▁milk	-1783
▁roof	-1784
▁beans	-1785
▁trash	-1786
▁vases	-1787
▁wheel	-1788
▁cement	-1789
▁narrow	-1790
▁stacked	-1791
▁bicycles	-1792
po	-1793
ass	-1794
key	-1795
lax	-1796
per	-1797
▁fa	-1798
▁je	-1799
cked	-1800
fast	-1801
ions	-1802
land	-1803
made	-1804
▁ice	-1805
▁opp	-1806
▁ton	-1807
▁ump	-1808
owing	-1809
▁bull	-1810
▁does	-1811
▁eggs	-1812
▁feed	-1813
▁leaf	-1814
▁pool	-1815
▁tour	-1816
▁trol	-1817
anding	-1818
▁class	-1819
▁heads	-1820
▁overl	-1821
▁relax	-1822
▁rider	-1823
▁round	-1824
artment	-1825
▁bushes	-1826
▁clocks	-1827
▁tomato	-1828
▁closeup	-1829
▁crowded	-1830
▁profess	-1831
▁veggies	-1832
▁assorted	-1833
▁uniforms	-1834
▁breakfast	-1835
▁cluttered	-1836
▁stainless	-1837
▁containers	-1838
mo	-1839
tty	-1840
usk	-1841
ycl	-1842
▁ap	-1843
ared	-1844
case	-1845
cing	-1846
stum	-1847
aches	-1848
ering	-1849
pping	-1850
▁chop	-1851
▁palm	-1852
▁scul	-1853
▁what	-1854
phones	-1855
▁among	-1856
▁jumps	-1857
▁party	-1858
▁skies	-1859
▁steps	-1860
▁commut	-1861
▁costum	-1862
▁design	-1863
▁photos	-1864
▁pretty	-1865
▁smiles	-1866
▁umpire	-1867
▁urinal	-1868
▁ceiling	-1869
▁himself	-1870
▁pillows	-1871
▁tomatoes	-1872
▁directions	-1873
bs	-1874
als	-1875
let	-1876
ned	-1877
tte	-1878
▁sy	-1879
ique	-1880
ired	-1881
read	-1882
▁ent	-1883
▁fun	-1884
▁glo	-1885
▁ret	-1886
armac	-1887
eling	-1888
ooter	-1889
▁coat	-1890
▁cupc	-1891
▁toas	-1892
▁drive	-1893
▁fancy	-1894
▁multi	-1895
ighting	-1896
▁cigare	-1897
▁dishes	-1898
▁swings	-1899
▁tarmac	-1900
▁remotes	-1901
▁scooter	-1902
▁clothing	-1903
▁outdoors	-1904
▁overhead	-1905
▁pastries	-1906
▁fashioned	-1907
▁assortment	-1908
da	-1909
so	-1910
ini	-1911
ore	-1912
▁gl	-1913
adow	-1914
ican	-1915
iler	-1916
ists	-1917
ract	-1918
usty	-1919
yard	-1920
▁ear	-1921
▁pup	-1922
ising	-1923
▁arms	-1924
▁gard	-1925
▁glaz	-1926
▁hood	-1927
▁hous	-1928
▁lies	-1929
▁shin	-1930
▁sill	-1931
▁used	-1932
▁wide	-1933
▁alone	-1934
▁bride	-1935
▁doors	-1936
▁leash	-1937
▁stool	-1938
▁urban	-1939
▁harbor	-1940
▁hotdog	-1941
▁outfit	-1942
▁pepper	-1943
▁selfie	-1944
▁vanity	-1945
▁appears	-1946
▁machine	-1947
▁smoking	-1948
▁streets	-1949
▁sculpture	-1950
▁displaying	-1951
▁professional	-1952
▁snowboarding	-1953
co	-1954
iff	-1955
ils	-1956
▁ju	-1957
ckey	-1958
▁mix	-1959
▁six	-1960
allen	-1961
ially	-1962
inter	-1963
liner	-1964
▁bags	-1965
▁comf	-1966
▁eyes	-1967
▁feet	-1968
▁foll	-1969
▁hall	-1970
▁lett	-1971
▁make	-1972
▁pave	-1973
▁says	-1974
▁tied	-1975
▁colle	-1976
▁happy	-1977
▁rocky	-1978
▁shade	-1979
▁touch	-1980
▁wires	-1981
▁device	-1982
▁garden	-1983
▁ornate	-1984
▁police	-1985
▁things	-1986
▁upside	-1987
idential	-1988
▁clothes	-1989
▁laptops	-1990
▁mustard	-1991
▁petting	-1992
▁shelves	-1993
▁trolley	-1994
▁boarding	-1995
▁commuter	-1996
▁pavement	-1997
▁residential	-1998
▁strawberries	-1999
be	-2000
ef	-2001
ps	-2002
vy	-2003
eds	-2004
ium	-2005
oni	-2006
ory	-2007
ser	-2008
aded	-2009
icks	-2010
ised	-2011
line	-2012
ness	-2013
▁cro	-2014
▁fig	-2015
▁rug	-2016
▁tan	-2017
▁vis	-2018
itary	-2019
iting	-2020
rench	-2021
▁beds	-2022
▁gets	-2023
▁hats	-2024
▁legs	-2025
▁lone	-2026
▁ship	-2027
▁spot	-2028
mpting	-2029
▁appro	-2030
▁cloth	-2031
▁goats	-2032
▁lunch	-2033
▁pants	-2034
▁plain	-2035
▁posit	-2036
▁rural	-2037
▁steep	-2038
▁trunk	-2039
▁action	-2040
▁french	-2041
▁greens	-2042
▁houses	-2043
▁itself	-2044
▁boarder	-2045
▁decorat	-2046
▁railing	-2047
struction	-2048
▁blankets	-2049
▁electric	-2050
▁shopping	-2051
▁cigarette	-2052
▁partially	-2053
▁attempting	-2054
▁skateboards	-2055
dd	-2056
ib	-2057
iv	-2058
hel	-2059
imb	-2060
ices	-2061
▁ant	-2062
▁bik	-2063
▁cir	-2064
▁fur	-2065
▁med	-2066
▁nap	-2067
▁paw	-2068
▁ven	-2069
cture	-2070
glass	-2071
usted	-2072
▁lays	-2073
▁prod	-2074
▁rear	-2075
▁saus	-2076
▁smal	-2077
▁block	-2078
▁freez	-2079
▁pasta	-2080
▁puppy	-2081
▁skirt	-2082
▁still	-2083
▁utens	-2084
glasses	-2085
▁candle	-2086
▁fallen	-2087
▁racing	-2088
▁sliding	-2089
▁walkway	-2090
▁includes	-2091
▁kneeling	-2092
▁military	-2093
▁overlooking	-2094
▁snowboarder	-2095
..	-2096
li	-2097
ons	-2098
ony	-2099
ork	-2100
ste	-2101
uff	-2102
ung	-2103
erly	-2104
ible	-2105
ield	-2106
ital	-2107
lage	-2108
pack	-2109
ring	-2110
rink	-2111
sted	-2112
ular	-2113
very	-2114
▁acc	-2115
▁cap	-2116
▁dep	-2117
▁dra	-2118
▁eld	-2119
▁lad	-2120
ption	-2121
scape	-2122
▁card	-2123
▁eats	-2124
▁gate	-2125
▁hard	-2126
▁held	-2127
▁rows	-2128
▁runs	-2129
▁stru	-2130
▁teen	-2131
unding	-2132
▁beard	-2133
▁frame	-2134
▁groom	-2135
▁laugh	-2136
▁shoul	-2137
▁sides	-2138
▁smoke	-2139
▁sport	-2140
▁closed	-2141
▁floors	-2142
▁glazed	-2143
▁indoor	-2144
▁sheets	-2145
▁stream	-2146
▁sunset	-2147
▁beneath	-2148
▁costume	-2149
▁opening	-2150
▁smaller	-2151
▁trailer	-2152
▁competit	-2153
▁frosting	-2154
▁prepared	-2155
▁touching	-2156
▁featuring	-2157
▁decorations	-2158
▁pedestrians	-2159
az	-2160
ees	-2161
pet	-2162
use	-2163
▁su	-2164
bage	-2165
cker	-2166
cted	-2167
inis	-2168
▁cub	-2169
▁mag	-2170
▁mis	-2171
▁tur	-2172
▁wra	-2173
▁amer	-2174
▁flip	-2175
▁here	-2176
▁lawn	-2177
▁neat	-2178
▁nood	-2179
▁pine	-2180
▁prop	-2181
▁soda	-2182
▁spra	-2183
▁stun	-2184
▁tiny	-2185
▁fried	-2186
▁juice	-2187
▁leans	-2188
▁messy	-2189
▁posed	-2190
▁pract	-2191
▁rests	-2192
▁these	-2193
▁waits	-2194
▁curled	-2195
▁island	-2196
▁meters	-2197
▁portra	-2198
▁bending	-2199
▁lettuce	-2200
▁writing	-2201
▁backpack	-2202
▁contains	-2203
▁hillside	-2204
▁gathering	-2205
▁decorative	-2206
mb	-2207
app	-2208
gue	-2209
nel	-2210
ates	-2211
bile	-2212
hers	-2213
lers	-2214
ster	-2215
▁fer	-2216
▁map	-2217
▁sup	-2218
cting	-2219
erial	-2220
minal	-2221
osite	-2222
shirt	-2223
▁cele	-2224
▁deli	-2225
▁fall	-2226
▁goat	-2227
▁pans	-2228
▁toys	-2229
▁beige	-2230
▁enter	-2231
▁kinds	-2232
▁lemon	-2233
▁neigh	-2234
▁opened	-2235
▁paddle	-2236
▁papers	-2237
▁patter	-2238
▁posted	-2239
▁stairs	-2240
▁wheels	-2241
▁bunches	-2242
▁elderly	-2243
▁growing	-2244
▁kicking	-2245
▁noodles	-2246
▁putting	-2247
▁rackets	-2248
▁screens	-2249
▁brightly	-2250
▁opposite	-2251
▁pointing	-2252
▁portrait	-2253
▁terminal	-2254
▁structure	-2255
ne	-2256
bed	-2257
gon	-2258
ier	-2259
tor	-2260
acle	-2261
akes	-2262
ange	-2263
ence	-2264
ried	-2265
▁eye	-2266
▁gas	-2267
▁mug	-2268
▁tea	-2269
▁vol	-2270
▁buck	-2271
▁calf	-2272
▁fake	-2273
▁hole	-2274
▁life	-2275
▁moon	-2276
▁pond	-2277
▁rope	-2278
▁ties	-2279
▁balan	-2280
▁graze	-2281
▁leafy	-2282
▁offic	-2283
▁patio	-2284
▁speed	-2285
▁stret	-2286
▁sweat	-2287
▁asleep	-2288
▁carpet	-2289
▁course	-2290
▁onions	-2291
▁passes	-2292
▁pickup	-2293
▁riders	-2294
▁rusted	-2295
▁signal	-2296
▁sprink	-2297
▁throws	-2298
▁tongue	-2299
▁towels	-2300
▁transp	-2301
▁turned	-2302
▁balloon	-2303
▁cupcake	-2304
▁freezer	-2305
▁frosted	-2306
▁married	-2307
▁pouring	-2308
▁roadway	-2309
▁selling	-2310
▁toaster	-2311
▁american	-2312
▁neighbor	-2313
▁utensils	-2314
▁airplanes	-2315
▁crosswalk	-2316
▁photograp	-2317
▁collection	-2318
▁sunglasses	-2319
▁construction	-2320
pl	-2321
bow	-2322
cus	-2323
med	-2324
abit	-2325
ague	-2326
aper	-2327
asty	-2328
cess	-2329
hill	-2330
hood	-2331
ivid	-2332
umer	-2333
▁aud	-2334
▁cas	-2335
▁coo	-2336
▁fil	-2337
▁how	-2338
▁log	-2339
▁pet	-2340
allow	-2341
ushes	-2342
▁chin	-2343
▁fing	-2344
▁lane	-2345
▁liqu	-2346
▁only	-2347
▁pots	-2348
▁pres	-2349
▁ring	-2350
▁sort	-2351
▁tent	-2352
▁vend	-2353
abitat	-2354
▁baked	-2355
▁grill	-2356
▁mound	-2357
▁numer	-2358
▁patch	-2359
▁piled	-2360
▁rusty	-2361
▁surro	-2362
▁haired	-2363
▁handle	-2364
▁images	-2365
▁jockey	-2366
▁peeled	-2367
▁potted	-2368
▁stares	-2369
▁devices	-2370
▁garbage	-2371
▁habitat	-2372
▁individ	-2373
▁located	-2374
▁persons	-2375
▁toilets	-2376
▁travels	-2377
▁displays	-2378
▁watering	-2379
▁alongside	-2380
▁apartment	-2381
▁pepperoni	-2382
▁advertising	-2383
▁surrounding	-2384
orn	-2385
ute	-2386
▁if	-2387
bble	-2388
▁ang	-2389
▁bef	-2390
▁cla	-2391
▁det	-2392
▁dig	-2393
▁far	-2394
▁hea	-2395
▁ket	-2396
▁mod	-2397
▁odd	-2398
▁tun	-2399
▁use	-2400
akers	-2401
ently	-2402
ility	-2403
ooked	-2404
uched	-2405
▁bare	-2406
▁bush	-2407
▁coll	-2408
▁cond	-2409
▁hits	-2410
▁obst	-2411
▁para	-2412
▁pipe	-2413
▁shoe	-2414
▁star	-2415
▁balls	-2416
▁blond	-2417
▁boots	-2418
▁check	-2419
▁chips	-2420
▁climb	-2421
▁cones	-2422
▁dryer	-2423
▁fight	-2424
▁flags	-2425
▁glove	-2426
▁icing	-2427
▁paras	-2428
▁plaid	-2429
▁sniff	-2430
▁syste	-2431
▁teams	-2432
▁thick	-2433
▁tiles	-2434
isement	-2435
▁butter	-2436
▁feeder	-2437
▁garage	-2438
▁giving	-2439
▁league	-2440
▁mobile	-2441
▁neatly	-2442
▁return	-2443
▁shadow	-2444
▁sports	-2445
▁spread	-2446
▁sticks	-2447
▁stools	-2448
▁doorway	-2449
▁grilled	-2450
▁leather	-2451
▁mirrors	-2452
▁missing	-2453
▁pineapp	-2454
▁rainbow	-2455
▁sausage	-2456
▁skating	-2457
▁urinals	-2458
▁beverage	-2459
▁branches	-2460
▁homemade	-2461
▁obstacle	-2462
▁relaxing	-2463
▁transport	-2464
▁headphones	-2465
▁individual	-2466
▁neighborhood	-2467
▁advertisement	-2468
bur	-2469
udd	-2470
abby	-2471
ught	-2472
ully	-2473
umin	-2474
ware	-2475
▁mop	-2476
▁sec	-2477
▁tho	-2478
▁tul	-2479
ience	-2480
▁also	-2481
▁barn	-2482
▁bell	-2483
▁butt	-2484
▁flor	-2485
▁inst	-2486
▁lift	-2487
▁mini	-2488
▁most	-2489
▁nose	-2490
▁pier	-2491
▁ripe	-2492
▁shru	-2493
▁soap	-2494
▁stra	-2495
▁tire	-2496
icious	-2497
ushing	-2498
yclist	-2499
▁arrow	-2500
▁enjoy	-2501
▁exten	-2502
▁hangs	-2503
▁lines	-2504
▁mixed	-2505
▁newly	-2506
▁paint	-2507
▁pulls	-2508
▁rainy	-2509
▁seats	-2510
▁sheet	-2511
▁spect	-2512
▁tasty	-2513
▁toast	-2514
▁tries	-2515
▁whole	-2516
▁before	-2517
▁holder	-2518
▁loaded	-2519
▁sailbo	-2520
▁system	-2521
▁antique	-2522
▁chopped	-2523
▁collage	-2524
▁freight	-2525
▁landing	-2526
▁objects	-2527
▁officer	-2528
▁platter	-2529
▁section	-2530
▁shallow	-2531
▁shining	-2532
▁without	-2533
▁backyard	-2534
▁bookcase	-2535
▁bookshel	-2536
▁downhill	-2537
▁frisbees	-2538
▁interact	-2539
▁lighting	-2540
▁shoulder	-2541
▁beverages	-2542
▁landscape	-2543
▁stoplight	-2544
▁electronics	-2545
oe	-2546
ggy	-2547
hib	-2548
iet	-2549
ird	-2550
val	-2551
zen	-2552
▁el	-2553
nect	-2554
ount	-2555
ower	-2556
redi	-2557
rier	-2558
ucet	-2559
wood	-2560
▁exp	-2561
▁fed	-2562
▁gen	-2563
▁ing	-2564
▁leg	-2565
▁sad	-2566
▁sim	-2567
▁siz	-2568
▁war	-2569
aming	-2570
ators	-2571
house	-2572
oming	-2573
orter	-2574
ustom	-2575
▁bats	-2576
▁buff	-2577
▁chef	-2578
▁cons	-2579
▁corn	-2580
▁cuts	-2581
▁duck	-2582
▁dump	-2583
▁dusk	-2584
▁guit	-2585
▁iron	-2586
▁mush	-2587
▁neon	-2588
▁pige	-2589
▁rece	-2590
▁stud	-2591
▁waff	-2592
nected	-2593
▁backs	-2594
▁cargo	-2595
▁chees	-2596
▁clown	-2597
▁crust	-2598
▁every	-2599
▁flown	-2600
▁goods	-2601
▁micro	-2602
▁noteb	-2603
▁paved	-2604
▁power	-2605
▁range	-2606
▁sized	-2607
▁snack	-2608
▁spray	-2609
▁stunt	-2610
▁tabby	-2611
▁wagon	-2612
▁celebr	-2613
▁collar	-2614
▁custom	-2615
▁dispen	-2616
▁faucet	-2617
▁follow	-2618
▁garnis	-2619
▁propel	-2620
▁shirts	-2621
▁teenag	-2622
▁tulips	-2623
▁tunnel	-2624
▁volley	-2625
redients	-2626
▁falling	-2627
▁jackets	-2628
▁produce	-2629
▁reaches	-2630
▁shaking	-2631
▁curtains	-2632
▁jetliner	-2633
▁mushroom	-2634
▁performs	-2635
▁towering	-2636
▁connected	-2637
▁delicious	-2638
▁shirtless	-2639
▁sprinkles	-2640
▁microphone	-2641
▁spectators	-2642
▁competition	-2643
▁ingredients	-2644
ho	-2645
ls	-2646
▁3	-2647
ior	-2648
kin	-2649
ral	-2650
uct	-2651
ues	-2652
▁ab	-2653
▁ke	-2654
▁ow	-2655
acon	-2656
anda	-2657
ator	-2658
bbon	-2659
erts	-2660
gged	-2661
ging	-2662
icol	-2663
lish	-2664
omot	-2665
pass	-2666
work	-2667
▁bad	-2668
▁bay	-2669
▁ber	-2670
▁cop	-2671
▁dim	-2672
▁eit	-2673
▁hum	-2674
▁inc	-2675
▁lis	-2676
▁mac	-2677
▁nat	-2678
▁rad	-2679
▁rep	-2680
▁saf	-2681
▁sem	-2682
▁you	-2683
agull	-2684
allic	-2685
ament	-2686
ckers	-2687
fully	-2688
ipped	-2689
▁bank	-2690
▁beef	-2691
▁bent	-2692
▁blow	-2693
▁char	-2694
▁foil	-2695
▁hosp	-2696
▁jets	-2697
▁laid	-2698
▁leap	-2699
▁link	-2700
▁logo	-2701
▁paws	-2702
▁plow	-2703
▁remo	-2704
▁serv	-2705
▁tail	-2706
▁tank	-2707
▁unit	-2708
▁vest	-2709
ically	-2710
iments	-2711
▁coach	-2712
▁hills	-2713
▁holes	-2714
▁newsp	-2715
▁panda	-2716
▁quiet	-2717
▁seems	-2718
▁stuck	-2719
▁wears	-2720
colored	-2721
omotive	-2722
yclists	-2723
▁bakery	-2724
▁bucket	-2725
▁either	-2726
▁flight	-2727
▁floral	-2728
▁gentle	-2729
▁liquid	-2730
▁marble	-2731
▁mostly	-2732
▁motion	-2733
▁raised	-2734
▁ribbon	-2735
▁vendor	-2736
icolored	-2737
▁carries	-2738
▁fighter	-2739
▁herself	-2740
▁leading	-2741
▁loading	-2742
▁peppers	-2743
▁printer	-2744
▁seagull	-2745
▁seating	-2746
▁sharing	-2747
▁workers	-2748
▁written	-2749
▁audience	-2750
▁counters	-2751
▁driveway	-2752
▁laughing	-2753
▁metallic	-2754
▁notebook	-2755
▁pictured	-2756
▁cardboard	-2757
▁comforter	-2758
▁condiments	-2759
▁locomotive	-2760
".	-2761
na	-2762
▁4	-2763
boy	-2764
fro	-2765
ili	-2766
ilt	-2767
lit	-2768
mpt	-2769
whe	-2770
aged	-2771
ises	-2772
most	-2773
rage	-2774
▁bit	-2775
▁bri	-2776
▁dug	-2777
▁hal	-2778
▁mit	-2779
▁mud	-2780
▁pin	-2781
▁por	-2782
▁rub	-2783
▁tax	-2784
dling	-2785
eting	-2786
front	-2787
ounge	-2788
shing	-2789
useum	-2790
▁bill	-2791
▁clay	-2792
▁come	-2793
▁dead	-2794
▁deer	-2795
▁fill	-2796
▁goes	-2797
▁grab	-2798
▁hors	-2799
▁more	-2800
▁panc	-2801
▁prin	-2802
▁seas	-2803
▁semi	-2804
▁slow	-2805
▁trav	-2806
▁whee	-2807
inding	-2808
▁bacon	-2809
▁built	-2810
▁funny	-2811
▁heart	-2812
▁heavy	-2813
▁mural	-2814
▁pears	-2815
▁stops	-2816
▁suits	-2817
▁trays	-2818
▁aerial	-2819
▁almost	-2820
▁clouds	-2821
▁covers	-2822
▁friend	-2823
▁gravel	-2824
▁guitar	-2825
▁hambur	-2826
▁ladies	-2827
▁larger	-2828
▁lounge	-2829
▁museum	-2830
▁napkin	-2831
▁safety	-2832
▁string	-2833
▁trunks	-2834
▁unique	-2835
▁waffle	-2836
▁winter	-2837
▁arrange	-2838
▁baskets	-2839
▁batting	-2840
▁chinese	-2841
▁dresser	-2842
▁figures	-2843
▁forward	-2844
▁handing	-2845
▁helping	-2846
▁indoors	-2847
▁leaving	-2848
▁letting	-2849
▁lighted	-2850
▁peeking	-2851
▁sailing	-2852
▁steeple	-2853
▁visible	-2854
▁wrapped	-2855
▁checking	-2856
▁climbing	-2857
▁covering	-2858
▁crackers	-2859
▁crouched	-2860
▁desserts	-2861
▁fighting	-2862
▁hospital	-2863
▁hydrants	-2864
▁matching	-2865
▁personal	-2866
▁position	-2867
▁classroom	-2868
▁countertop	-2869
▁pedestrian	-2870
▁practicing	-2871
▁reflecting	-2872
▁travelling	-2873
▁approaching	-2874
▁interactive	-2875
▁multicolored	-2876
▁photographer	-2877
gn	-2878
oc	-2879
za	-2880
▁6	-2881
ano	-2882
coh	-2883
ere	-2884
ico	-2885
min	-2886
olf	-2887
omb	-2888
opy	-2889
ora	-2890
thy	-2891
tru	-2892
▁aw	-2893
▁na	-2894
▁si	-2895
ctor	-2896
iced	-2897
oose	-2898
rain	-2899
uffy	-2900
umbo	-2901
vely	-2902
▁act	-2903
▁cru	-2904
▁fix	-2905
▁had	-2906
▁ill	-2907
▁jar	-2908
▁pig	-2909
▁sep	-2910
▁sne	-2911
▁sug	-2912
▁val	-2913
▁wip	-2914
asing	-2915
brary	-2916
dered	-2917
ersey	-2918
green	-2919
hibit	-2920
where	-2921
▁arch	-2922
▁coin	-2923
▁comb	-2924
▁cran	-2925
▁deep	-2926
▁fold	-2927
▁gran	-2928
▁jars	-2929
▁jeep	-2930
▁lean	-2931
▁nuts	-2932
▁rode	-2933
▁rose	-2934
▁sets	-2935
▁taxi	-2936
▁tick	-2937
▁twin	-2938
▁unus	-2939
▁upon	-2940
▁wear	-2941
▁zone	-2942
reline	-2943
tening	-2944
▁brief	-2945
▁canoe	-2946
▁chili	-2947
▁dimly	-2948
▁ducks	-2949
▁faces	-2950
▁flood	-2951
▁focus	-2952
▁horns	-2953
▁jumbo	-2954
▁lamps	-2955
▁model	-2956
▁point	-2957
▁reach	-2958
▁roman	-2959
▁ships	-2960
▁storm	-2961
▁thing	-2962
▁works	-2963
▁world	-2964
inished	-2965
▁biting	-2966
▁blonde	-2967
▁burger	-2968
▁calico	-2969
▁cruise	-2970
▁donkey	-2971
▁fluffy	-2972
▁formal	-2973
▁handic	-2974
▁histor	-2975
▁intere	-2976
▁iphone	-2977
▁jersey	-2978
▁parent	-2979
▁runner	-2980
▁siting	-2981
▁slight	-2982
▁slopes	-2983
▁turkey	-2984
▁unmade	-2985
▁waters	-2986
uminated	-2987
▁barrier	-2988
▁blowing	-2989
▁comfort	-2990
▁doubles	-2991
▁exhibit	-2992
▁fashion	-2993
▁hallway	-2994
▁jockeys	-2995
▁library	-2996
▁picking	-2997
▁propped	-2998
▁pushing	-2999
▁service	-3000
▁statues	-3001
▁storage	-3002
▁enclosed	-3003
▁feathers	-3004
▁flooring	-3005
▁overpass	-3006
▁sniffing	-3007
▁teenager	-3008
▁balancing	-3009
▁formation	-3010
▁gentleman	-3011
▁hamburger	-3012
▁newspaper	-3013
▁propeller	-3014
▁shoreline	-3015
▁basketball	-3016
▁cellphones	-3017
▁strawberry	-3018
▁arrangement	-3019
bi	-3020
fl	-3021
gy	-3022
ha	-3023
wh	-3024
ym	-3025
cen	-3026
gan	-3027
ina	-3028
lee	-3029
ols	-3030
unk	-3031
was	-3032
zzy	-3033
▁12	-3034
▁op	-3035
▁tu	-3036
aker	-3037
angu	-3038
chup	-3039
cial	-3040
ense	-3041
ests	-3042
eter	-3043
ison	-3044
lane	-3045
lete	-3046
ownt	-3047
scra	-3048
ways	-3049
▁ath	-3050
▁aut	-3051
▁gaz	-3052
▁gri	-3053
▁imp	-3054
▁lif	-3055
▁mos	-3056
▁mov	-3057
▁nic	-3058
▁own	-3059
▁sla	-3060
▁tro	-3061
cohol	-3062
eback	-3063
gnant	-3064
inach	-3065
ively	-3066
ondon	-3067
rance	-3068
uddle	-3069
▁ador	-3070
▁army	-3071
▁cast	-3072
▁chew	-3073
▁cush	-3074
▁disk	-3075
▁ears	-3076
▁expo	-3077
▁fact	-3078
▁fixt	-3079
▁magn	-3080
▁mass	-3081
▁pony	-3082
▁poss	-3083
▁size	-3084
▁sold	-3085
▁spla	-3086
▁stir	-3087
▁talk	-3088
▁thin	-3089
▁trim	-3090
▁wing	-3091
▁wool	-3092
asting	-3093
decker	-3094
erness	-3095
ooters	-3096
washer	-3097
▁afric	-3098
▁booth	-3099
▁carts	-3100
▁cases	-3101
▁cycle	-3102
▁depic	-3103
▁downt	-3104
▁dried	-3105
▁figur	-3106
▁kitty	-3107
▁langu	-3108
▁marsh	-3109
▁obser	-3110
▁onion	-3111
▁owner	-3112
▁piano	-3113
▁pipes	-3114
▁print	-3115
▁rails	-3116
▁rolls	-3117
▁shiny	-3118
▁skiis	-3119
▁snugg	-3120
▁split	-3121
▁squat	-3122
▁stage	-3123
▁sugar	-3124
▁suite	-3125
▁talks	-3126
▁windy	-3127
atching	-3128
▁attire	-3129
▁baking	-3130
▁barbed	-3131
▁canopy	-3132
▁cowboy	-3133
▁direct	-3134
▁folded	-3135
▁grazes	-3136
▁hiding	-3137
▁hooked	-3138
▁london	-3139
▁nicely	-3140
▁operat	-3141
▁parasa	-3142
▁series	-3143
▁skates	-3144
▁sleeps	-3145
▁thrown	-3146
▁valley	-3147
▁alcohol	-3148
▁attempt	-3149
▁chained	-3150
▁cookies	-3151
▁factory	-3152
▁fingers	-3153
▁flooded	-3154
▁garnish	-3155
▁herding	-3156
▁ketchup	-3157
▁pigeons	-3158
▁railway	-3159
▁skyline	-3160
▁skyscra	-3161
▁spinach	-3162
▁sweater	-3163
▁utility	-3164
▁airliner	-3165
▁balloons	-3166
▁cleaning	-3167
▁controls	-3168
▁downtown	-3169
▁entrance	-3170
▁flowered	-3171
▁grinding	-3172
▁machines	-3173
▁pitching	-3174
▁pregnant	-3175
▁scooters	-3176
▁tourists	-3177
▁bicyclist	-3178
▁billboard	-3179
▁dispenser	-3180
▁following	-3181
▁horseback	-3182
▁mushrooms	-3183
▁pineapple	-3184
▁reflected	-3185
▁sailboats	-3186
▁stretches	-3187
▁telephone	-3188
▁dishwasher	-3189
▁positioned	-3190
▁vegetation	-3191
▁wilderness	-3192
▁illuminated	-3193
▁motorcyclists	-3194
▁refrigerators	-3195
."	-3196
ma	-3197
no	-3198
ok	-3199
ze	-3200
zy	-3201
amp	-3202
ams	-3203
arf	-3204
arp	-3205
cra	-3206
ebo	-3207
gie	-3208
ied	-3209
mes	-3210
ope	-3211
pas	-3212
rid	-3213
aked	-3214
cony	-3215
drop	-3216
ined	-3217
iron	-3218
mets	-3219
oned	-3220
tery	-3221
ties	-3222
ured	-3223
usks	-3224
▁adj	-3225
▁bul	-3226
▁eas	-3227
▁gym	-3228
▁lab	-3229
▁lie	-3230
▁maj	-3231
▁oli	-3232
▁scr	-3233
▁sus	-3234
▁tor	-3235
▁vic	-3236
adium	-3237
alled	-3238
althy	-3239
andal	-3240
anger	-3241
chair	-3242
craft	-3243
ctive	-3244
cular	-3245
elves	-3246
oping	-3247
ories	-3248
plies	-3249
ushed	-3250
vated	-3251
venue	-3252
▁arri	-3253
▁beak	-3254
▁buns	-3255
▁cafe	-3256
▁calm	-3257
▁camp	-3258
▁care	-3259
▁cave	-3260
▁cold	-3261
▁golf	-3262
▁groc	-3263
▁hose	-3264
▁lens	-3265
▁name	-3266
▁oval	-3267
▁peas	-3268
▁peel	-3269
▁pens	-3270
▁slee	-3271
▁tags	-3272
▁tape	-3273
▁than	-3274
▁toss	-3275
▁trop	-3276
▁uses	-3277
▁warm	-3278
▁ways	-3279
achute	-3280
acious	-3281
ipping	-3282
spread	-3283
▁bagel	-3284
▁blind	-3285
▁crate	-3286
▁curve	-3287
▁extra	-3288
▁extre	-3289
▁ferry	-3290
▁grand	-3291
▁heels	-3292
▁males	-3293
▁moped	-3294
▁organ	-3295
▁plaza	-3296
▁prote	-3297
▁separ	-3298
▁seven	-3299
▁shape	-3300
▁steam	-3301
▁stran	-3302
▁third	-3303
▁those	-3304
▁tusks	-3305
▁wings	-3306
▁amount	-3307
▁avenue	-3308
▁bikers	-3309
▁buffet	-3310
▁closet	-3311
▁dugout	-3312
▁frozen	-3313
▁furnis	-3314
▁gaming	-3315
▁gloves	-3316
▁golden	-3317
▁groups	-3318
▁lemons	-3319
▁meadow	-3320
▁olives	-3321
▁parade	-3322
▁really	-3323
▁resort	-3324
▁saying	-3325
▁simple	-3326
▁stores	-3327
▁vandal	-3328
▁accents	-3329
▁balcony	-3330
▁berries	-3331
▁chasing	-3332
▁crosses	-3333
▁freshly	-3334
▁grasses	-3335
▁healthy	-3336
▁helmets	-3337
▁include	-3338
▁leaping	-3339
▁licking	-3340
▁magnets	-3341
▁motorbi	-3342
▁placing	-3343
▁product	-3344
▁stadium	-3345
▁sticker	-3346
▁terrain	-3347
▁viewing	-3348
▁weather	-3349
▁aircraft	-3350
▁circular	-3351
▁cupboard	-3352
▁cupcakes	-3353
▁designed	-3354
▁football	-3355
▁historic	-3356
▁interior	-3357
▁pancakes	-3358
▁stopping	-3359
▁supplies	-3360
▁tropical	-3361
▁bedspread	-3362
▁customers	-3363
▁entertain	-3364
▁installed	-3365
▁keyboards	-3366
▁listening	-3367
▁parachute	-3368
▁approaches	-3369
▁vandalized	-3370
▁skateboarders	-3371
▁transportation	-3372
bu	-3373
fo	-3374
▁8	-3375
alo	-3376
ama	-3377
bby	-3378
cul	-3379
gen	-3380
hou	-3381
inn	-3382
ker	-3383
mic	-3384
rab	-3385
ris	-3386
spe	-3387
tes	-3388
uld	-3389
urf	-3390
uro	-3391
▁10	-3392
▁19	-3393
▁av	-3394
▁fu	-3395
▁hi	-3396
▁id	-3397
anta	-3398
boat	-3399
eree	-3400
ette	-3401
foot	-3402
gant	-3403
ided	-3404
ooks	-3405
suit	-3406
ters	-3407
toon	-3408
usky	-3409
▁any	-3410
▁bip	-3411
▁bor	-3412
▁cer	-3413
▁env	-3414
▁hur	-3415
▁lim	-3416
▁may	-3417
▁mem	-3418
▁mom	-3419
▁mus	-3420
▁pay	-3421
▁rel	-3422
▁tag	-3423
▁til	-3424
bbing	-3425
labor	-3426
tress	-3427
uling	-3428
wards	-3429
▁bald	-3430
▁band	-3431
▁cere	-3432
▁cool	-3433
▁cree	-3434
▁emer	-3435
▁fair	-3436
▁fast	-3437
▁foun	-3438
▁grow	-3439
▁hung	-3440
▁item	-3441
▁junk	-3442
▁know	-3443
▁lear	-3444
▁lego	-3445
▁lime	-3446
▁mane	-3447
▁mitt	-3448
▁move	-3449
▁much	-3450
▁muff	-3451
▁pean	-3452
▁pock	-3453
▁sell	-3454
▁sled	-3455
▁soft	-3456
▁temp	-3457
▁tops	-3458
▁wake	-3459
▁west	-3460
▁word	-3461
▁your	-3462
pended	-3463
selves	-3464
shield	-3465
sticks	-3466
▁ahead	-3467
▁ascen	-3468
▁canal	-3469
▁carry	-3470
▁chalk	-3471
▁cloud	-3472
▁crest	-3473
▁foggy	-3474
▁furry	-3475
▁fuzzy	-3476
▁gives	-3477
▁hilly	-3478
▁human	-3479
▁husky	-3480
▁jeans	-3481
▁knees	-3482
▁layer	-3483
▁lobby	-3484
▁magaz	-3485
▁meats	-3486
▁metro	-3487
▁names	-3488
▁pierc	-3489
▁porch	-3490
▁purse	-3491
▁quick	-3492
▁radio	-3493
▁rodeo	-3494
▁santa	-3495
▁scarf	-3496
▁setup	-3497
▁shops	-3498
▁skill	-3499
▁strip	-3500
▁tight	-3501
▁weeds	-3502
▁winds	-3503
▁words	-3504
▁youth	-3505
ination	-3506
station	-3507
▁access	-3508
▁artist	-3509
▁boogie	-3510
▁carved	-3511
▁castle	-3512
▁caught	-3513
▁circle	-3514
▁corral	-3515
▁driver	-3516
▁drying	-3517
▁finger	-3518
▁glides	-3519
▁grapes	-3520
▁hockey	-3521
▁marina	-3522
▁medium	-3523
▁points	-3524
▁repair	-3525
▁roller	-3526
▁second	-3527
▁serves	-3528
▁shrubs	-3529
▁silhou	-3530
▁spoons	-3531
▁stance	-3532
▁stripe	-3533
▁ticket	-3534
▁unable	-3535
▁victor	-3536
ironment	-3537
▁bearded	-3538
▁biplane	-3539
▁blurred	-3540
▁catches	-3541
▁chewing	-3542
▁classic	-3543
▁elegant	-3544
▁freeway	-3545
▁granite	-3546
▁guiding	-3547
▁happily	-3548
▁harness	-3549
▁hauling	-3550
▁hotdogs	-3551
▁meeting	-3552
▁message	-3553
▁milking	-3554
▁natural	-3555
▁numbers	-3556
▁pattern	-3557
▁pottery	-3558
▁present	-3559
▁process	-3560
▁project	-3561
▁referee	-3562
▁strange	-3563
▁topping	-3564
▁warning	-3565
▁attempts	-3566
▁backdrop	-3567
▁catchers	-3568
▁delivery	-3569
▁directly	-3570
▁extended	-3571
▁fountain	-3572
▁grabbing	-3573
▁intently	-3574
▁material	-3575
▁mattress	-3576
▁outfield	-3577
▁practice	-3578
▁sideways	-3579
▁slightly	-3580
▁sneakers	-3581
▁someones	-3582
▁speakers	-3583
▁speaking	-3584
▁speeding	-3585
▁stickers	-3586
▁straight	-3587
▁waterway	-3588
▁ascending	-3589
▁bookshelf	-3590
▁briefcase	-3591
▁checkered	-3592
▁figurines	-3593
▁operating	-3594
▁patterned	-3595
▁piercings	-3596
▁president	-3597
▁suspended	-3598
▁scratching	-3599
▁skyscraper	-3600
▁themselves	-3601
▁windshield	-3602
▁bookshelves	-3603
▁compartment	-3604
▁environment	-3605
▁interesting	-3606
▁photographs	-3607
▁toothbrushes	-3608
50	-3609
ai	-3610
ca	-3611
gu	-3612
od	-3613
pr	-3614
sk	-3615
vd	-3616
ana	-3617
con	-3618
den	-3619
eet	-3620
fts	-3621
gin	-3622
gre	-3623
ief	-3624
ito	-3625
mer	-3626
ode	-3627
ole	-3628
our	-3629
pid	-3630
pod	-3631
tra	-3632
uis	-3633
van	-3634
vey	-3635
wel	-3636
▁ic	-3637
ably	-3638
ales	-3639
ater	-3640
aved	-3641
bing	-3642
cast	-3643
chan	-3644
ders	-3645
iled	-3646
leac	-3647
look	-3648
mely	-3649
oney	-3650
otic	-3651
rict	-3652
roll	-3653
sole	-3654
stri	-3655
temp	-3656
time	-3657
view	-3658
zzly	-3659
▁add	-3660
▁aqu	-3661
▁ave	-3662
▁bod	-3663
▁bra	-3664
▁caf	-3665
▁def	-3666
▁den	-3667
▁dol	-3668
▁dom	-3669
▁emp	-3670
▁fir	-3671
▁fis	-3672
▁fry	-3673
▁kis	-3674
▁mex	-3675
▁ple	-3676
▁rim	-3677
▁rob	-3678
▁str	-3679
▁tat	-3680
▁tid	-3681
▁try	-3682
▁unf	-3683
▁wit	-3684
adian	-3685
andel	-3686
aroni	-3687
bbery	-3688
borne	-3689
gging	-3690
gress	-3691
illet	-3692
ining	-3693
ments	-3694
paste	-3695
thing	-3696
▁aged	-3697
▁bars	-3698
▁bean	-3699
▁belt	-3700
▁bron	-3701
▁brow	-3702
▁burg	-3703
▁clus	-3704
▁cone	-3705
▁cram	-3706
▁dash	-3707
▁desc	-3708
▁deta	-3709
▁else	-3710
▁ever	-3711
▁exit	-3712
▁foam	-3713
▁foli	-3714
▁give	-3715
▁hugg	-3716
▁kept	-3717
▁leas	-3718
▁limb	-3719
▁lips	-3720
▁load	-3721
▁main	-3722
▁mugs	-3723
▁pets	-3724
▁plan	-3725
▁prov	-3726
▁pump	-3727
▁puts	-3728
▁read	-3729
▁reno	-3730
▁rent	-3731
▁robe	-3732
▁site	-3733
▁skin	-3734
▁stew	-3735
▁stom	-3736
▁such	-3737
▁swan	-3738
▁text	-3739
▁thru	-3740
▁trio	-3741
▁tusk	-3742
▁ware	-3743
▁were	-3744
▁zomb	-3745
acting	-3746
dering	-3747
eteria	-3748
isting	-3749
lights	-3750
urning	-3751
▁aband	-3752
▁alley	-3753
▁apron	-3754
▁atten	-3755
▁autom	-3756
▁beers	-3757
▁belly	-3758
▁bleac	-3759
▁cemet	-3760
▁chefs	-3761
▁coast	-3762
▁comes	-3763
▁cooks	-3764
▁crane	-3765
▁demon	-3766
▁desks	-3767
▁diner	-3768
▁dusty	-3769
▁early	-3770
▁flash	-3771
▁grown	-3772
▁guard	-3773
▁leads	-3774
▁major	-3775
▁meals	-3776
▁midst	-3777
▁mosqu	-3778
▁movie	-3779
▁muddy	-3780
▁oddly	-3781
▁piles	-3782
▁polit	-3783
▁press	-3784
▁recei	-3785
▁recor	-3786
▁rings	-3787
▁rises	-3788
▁sharp	-3789
▁socks	-3790
▁sofas	-3791
▁subur	-3792
▁surfs	-3793
▁thumb	-3794
▁tongs	-3795
▁tools	-3796
▁tourn	-3797
culator	-3798
▁arrows	-3799
▁attent	-3800
▁cheesy	-3801
▁circus	-3802
▁contra	-3803
▁cookie	-3804
▁elabor	-3805
▁farmer	-3806
▁fixing	-3807
▁hanger	-3808
▁kettle	-3809
▁landed	-3810
▁laughs	-3811
▁leaned	-3812
▁legged	-3813
▁lining	-3814
▁locked	-3815
▁monkey	-3816
▁onlook	-3817
▁packed	-3818
▁places	-3819
▁poster	-3820
▁puddle	-3821
▁scenic	-3822
▁shines	-3823
▁splash	-3824
▁stormy	-3825
▁stunts	-3826
▁tripod	-3827
▁typing	-3828
▁upward	-3829
▁washer	-3830
▁wiping	-3831
▁within	-3832
andelier	-3833
▁african	-3834
▁balance	-3835
▁brushes	-3836
▁buttons	-3837
▁cartoon	-3838
▁compact	-3839
▁console	-3840
▁contemp	-3841
▁crossed	-3842
▁daytime	-3843
▁digital	-3844
▁drivers	-3845
▁fishing	-3846
▁foliage	-3847
▁follows	-3848
▁foreign	-3849
▁grizzly	-3850
▁grouped	-3851
▁holders	-3852
▁hugging	-3853
▁lifting	-3854
▁markers	-3855
▁mexican	-3856
▁netting	-3857
▁parents	-3858
▁perches	-3859
▁portion	-3860
▁powered	-3861
▁prepare	-3862
▁rolling	-3863
▁skillet	-3864
▁spilled	-3865
▁stating	-3866
▁tractor	-3867
▁unusual	-3868
▁washing	-3869
▁wheeled	-3870
▁younger	-3871
▁airborne	-3872
▁balances	-3873
▁barefoot	-3874
▁breaking	-3875
▁canadian	-3876
▁crashing	-3877
▁elevated	-3878
▁fixtures	-3879
▁flipping	-3880
▁forested	-3881
▁handicap	-3882
▁hardwood	-3883
▁homeless	-3884
▁incoming	-3885
▁language	-3886
▁macaroni	-3887
▁numerals	-3888
▁numerous	-3889
▁overcast	-3890
▁paddling	-3891
▁powdered	-3892
▁products	-3893
▁roadside	-3894
▁sausages	-3895
▁seagulls	-3896
▁spraying	-3897
▁stairway	-3898
▁starting	-3899
▁abandoned	-3900
▁backpacks	-3901
▁cafeteria	-3902
▁competing	-3903
▁evergreen	-3904
▁extremely	-3905
▁observing	-3906
▁returning	-3907
▁shrubbery	-3908
▁squatting	-3909
▁calculator	-3910
▁chandelier	-3911
▁chopsticks	-3912
▁consisting	-3913
▁pineapples	-3914
▁playground	-3915
▁silverware	-3916
▁snowboards	-3917
▁toothpaste	-3918
▁tournament	-3919
▁accessories	-3920
▁countryside	-3921
▁mountainous	-3922
▁workstation	-3923
▁entertainment	-3924
29	-3925
:4	-3926
aw	-3927
hu	-3928
▁7	-3929
amb	-3930
cal	-3931
emb	-3932
ham	-3933
ift	-3934
ksh	-3935
loy	-3936
ney	-3937
psi	-3938
str	-3939
too	-3940
ude	-3941
umm	-3942
ums	-3943
urs	-3944
urt	-3945
uss	-3946
vet	-3947
xed	-3948
▁da	-3949
▁ol	-3950
▁wo	-3951
airy	-3952
amic	-3953
apan	-3954
cept	-3955
ddha	-3956
dock	-3957
dora	-3958
foam	-3959
gage	-3960
hand	-3961
horn	-3962
ider	-3963
idet	-3964
iers	-3965
ilia	-3966
lama	-3967
onal	-3968
owed	-3969
rest	-3970
rimp	-3971
rito	-3972
sley	-3973
ushi	-3974
zens	-3975
▁awa	-3976
▁bin	-3977
▁blu	-3978
▁bou	-3979
▁bru	-3980
▁cit	-3981
▁cry	-3982
▁cuc	-3983
▁dip	-3984
▁dot	-3985
▁dro	-3986
▁fol	-3987
▁fut	-3988
▁goo	-3989
▁lam	-3990
▁mas	-3991
▁mel	-3992
▁mer	-3993
▁mes	-3994
▁min	-3995
▁oil	-3996
▁pir	-3997
▁que	-3998
▁raw	-3999
▁ray	-4000
▁reg	-4001
▁san	-4002
▁sat	-4003
▁vil	-4004
▁won	-4005
acent	-4006
aging	-4007
amboo	-4008
anted	-4009
ately	-4010
ature	-4011
brush	-4012
cause	-4013
cloth	-4014
deled	-4015
dless	-4016
elope	-4017
ggles	-4018
hings	-4019
ifier	-4020
lapid	-4021
letes	-4022
onent	-4023
oodle	-4024
oored	-4025
opard	-4026
osing	-4027
stone	-4028
tower	-4029
truck	-4030
tures	-4031
urity	-4032
urned	-4033
welry	-4034
white	-4035
▁best	-4036
▁blaz	-4037
▁bunk	-4038
▁cent	-4039
▁chro	-4040
▁drop	-4041
▁easy	-4042
▁euro	-4043
▁even	-4044
▁fans	-4045
▁flav	-4046
▁help	-4047
▁hudd	-4048
▁jean	-4049
▁keep	-4050
▁knee	-4051
▁mast	-4052
▁memo	-4053
▁oper	-4054
▁orig	-4055
▁padd	-4056
▁pear	-4057
▁prob	-4058
▁rise	-4059
▁rund	-4060
▁scra	-4061
▁sele	-4062
▁spam	-4063
▁span	-4064
▁symb	-4065
▁tidy	-4066
▁tram	-4067
▁tube	-4068
▁unlo	-4069
▁wand	-4070
▁when	-4071
▁will	-4072
kshake	-4073
oramic	-4074
rofoam	-4075
▁adora	-4076
▁amtra	-4077
▁angle	-4078
▁basin	-4079
▁bidet	-4080
▁bound	-4081
▁buggy	-4082
▁bunny	-4083
▁cable	-4084
▁coats	-4085
▁dairy	-4086
▁diced	-4087
▁dolls	-4088
▁dolph	-4089
▁dozen	-4090
▁faced	-4091
▁first	-4092
▁fully	-4093
▁geese	-4094
▁hammo	-4095
▁honey	-4096
▁indic	-4097
▁japan	-4098
▁level	-4099
▁llama	-4100
▁moves	-4101
▁music	-4102
▁opens	-4103
▁panel	-4104
▁pepsi	-4105
▁quilt	-4106
▁races	-4107
▁repla	-4108
▁roads	-4109
▁rough	-4110
▁sails	-4111
▁shady	-4112
▁share	-4113
▁shred	-4114
▁sight	-4115
▁spots	-4116
▁stars	-4117
▁steak	-4118
▁stock	-4119
▁story	-4120
▁super	-4121
▁sushi	-4122
▁swans	-4123
▁swung	-4124
▁today	-4125
▁tuxed	-4126
▁vines	-4127
▁visit	-4128
itional	-4129
▁arched	-4130
▁assemb	-4131
▁bamboo	-4132
▁banner	-4133
▁bikini	-4134
▁bobble	-4135
▁buddha	-4136
▁button	-4137
▁celery	-4138
▁cereal	-4139
▁cobble	-4140
▁curved	-4141
▁cycles	-4142
▁decked	-4143
▁descri	-4144
▁diners	-4145
▁dozens	-4146
▁draped	-4147
▁employ	-4148
▁father	-4149
▁framed	-4150
▁frisbe	-4151
▁garlic	-4152
▁guests	-4153
▁halves	-4154
▁headed	-4155
▁lifegu	-4156
▁makeup	-4157
▁marked	-4158
▁marker	-4159
▁mechan	-4160
▁mopeds	-4161
▁muffin	-4162
▁passed	-4163
▁pickle	-4164
▁plains	-4165
▁played	-4166
▁poodle	-4167
▁rowing	-4168
▁saddle	-4169
▁season	-4170
▁shrimp	-4171
▁skater	-4172
▁skills	-4173
▁slowly	-4174
▁snacks	-4175
▁sniffs	-4176
▁social	-4177
▁strewn	-4178
▁tilted	-4179
▁tusked	-4180
▁viewed	-4181
▁washed	-4182
▁wedges	-4183
▁wicker	-4184
▁adorned	-4185
▁airline	-4186
▁attract	-4187
▁baggage	-4188
▁bathing	-4189
▁because	-4190
▁bedding	-4191
▁besides	-4192
▁bikinis	-4193
▁buffalo	-4194
▁burrito	-4195
▁capture	-4196
▁ceramic	-4197
▁cleaned	-4198
▁cluster	-4199
▁commode	-4200
▁cramped	-4201
▁curious	-4202
▁deliver	-4203
▁designs	-4204
▁dilapid	-4205
▁drawing	-4206
▁extends	-4207
▁females	-4208
▁folding	-4209
▁goggles	-4210
▁grocery	-4211
▁handles	-4212
▁heading	-4213
▁jewelry	-4214
▁leopard	-4215
▁marking	-4216
▁massive	-4217
▁nothing	-4218
▁outfits	-4219
▁paddock	-4220
▁parsley	-4221
▁patties	-4222
▁peering	-4223
▁pickles	-4224
▁printed	-4225
▁rubbing	-4226
▁rundown	-4227
▁slanted	-4228
▁slicing	-4229
▁soaring	-4230
▁stripes	-4231
▁student	-4232
▁stylish	-4233
▁toasted	-4234
▁tossing	-4235
▁village	-4236
▁adjacent	-4237
▁adorable	-4238
▁antelope	-4239
▁artistic	-4240
▁athletes	-4241
▁boarders	-4242
▁complete	-4243
▁contents	-4244
▁cushions	-4245
▁demonstr	-4246
▁district	-4247
▁dumpster	-4248
▁finished	-4249
▁followed	-4250
▁learning	-4251
▁mosquito	-4252
▁offering	-4253
▁opposing	-4254
▁ornament	-4255
▁pedestal	-4256
▁planters	-4257
▁progress	-4258
▁roasting	-4259
▁sailboat	-4260
▁security	-4261
▁shelving	-4262
▁soldiers	-4263
▁stripped	-4264
▁students	-4265
▁teaching	-4266
▁trailers	-4267
▁training	-4268
▁wetsuits	-4269
▁windsurf	-4270
▁wireless	-4271
▁bleachers	-4272
▁cabinetry	-4273
▁courtyard	-4274
▁cupboards	-4275
▁dashboard	-4276
▁elaborate	-4277
▁hairbrush	-4278
▁milkshake	-4279
▁organized	-4280
▁paintings	-4281
▁panoramic	-4282
▁reception	-4283
▁recording	-4284
▁remodeled	-4285
▁styrofoam	-4286
▁victorian	-4287
▁warehouse	-4288
▁chalkboard	-4289
▁controlled	-4290
▁electrical	-4291
▁smartphone	-4292
▁unfinished	-4293
▁wheelchair	-4294
▁windowsill	-4295
▁celebrating	-4296
▁cobblestone	-4297
▁combination	-4298
▁comfortable	-4299
▁dilapidated	-4300
▁furnishings	-4301
▁instruction	-4302
▁interacting	-4303
▁snowboarders	-4304
af	-4305
iw	-4306
ng	-4307
sa	-4308
ti	-4309
ws	-4310
yl	-4311
▁&	-4312
▁,	-4313
▁5	-4314
ago	-4315
aks	-4316
ath	-4317
bee	-4318
car	-4319
cla	-4320
cut	-4321
ern	-4322
fly	-4323
gle	-4324
hua	-4325
ifl	-4326
ipe	-4327
ita	-4328
mel	-4329
nah	-4330
nty	-4331
oms	-4332
ppy	-4333
quo	-4334
rew	-4335
rup	-4336
uck	-4337
wal	-4338
yle	-4339
▁11	-4340
▁ba	-4341
▁bm	-4342
▁ga	-4343
▁ip	-4344
▁mc	-4345
▁mi	-4346
▁ox	-4347
▁pc	-4348
▁ru	-4349
ache	-4350
ades	-4351
aila	-4352
amon	-4353
anse	-4354
aped	-4355
atic	-4356
cake	-4357
cela	-4358
dral	-4359
eech	-4360
elly	-4361
erie	-4362
gurt	-4363
ibly	-4364
iche	-4365
icip	-4366
icle	-4367
idas	-4368
itan	-4369
ited	-4370
ives	-4371
life	-4372
like	-4373
nequ	-4374
oped	-4375
park	-4376
rial	-4377
ripe	-4378
sers	-4379
shed	-4380
ston	-4381
test	-4382
tock	-4383
ummy	-4384
undy	-4385
what	-4386
yond	-4387
zard	-4388
▁ash	-4389
▁atm	-4390
▁buy	-4391
▁cil	-4392
▁cri	-4393
▁egy	-4394
▁emb	-4395
▁fit	-4396
▁fle	-4397
▁gun	-4398
▁haw	-4399
▁hip	-4400
▁inj	-4401
▁jam	-4402
▁mor	-4403
▁now	-4404
▁occ	-4405
▁pac	-4406
▁paj	-4407
▁pil	-4408
▁pod	-4409
▁pon	-4410
▁rec	-4411
▁saw	-4412
▁sex	-4413
▁sol	-4414
▁suv	-4415
▁tee	-4416
▁tex	-4417
▁tug	-4418
▁unc	-4419
aling	-4420
antro	-4421
apped	-4422
arium	-4423
atten	-4424
bucks	-4425
chief	-4426
colli	-4427
count	-4428
eaten	-4429
ebody	-4430
ening	-4431
erted	-4432
estic	-4433
icine	-4434
inery	-4435
issue	-4436
itter	-4437
itude	-4438
izing	-4439
lined	-4440
lines	-4441
mesan	-4442
orary	-4443
othic	-4444
ously	-4445
paper	-4446
ropol	-4447
rowns	-4448
shine	-4449
stand	-4450
stead	-4451
uated	-4452
ulifl	-4453
ungle	-4454
urmet	-4455
walks	-4456
zzled	-4457
▁anch	-4458
▁beat	-4459
▁bend	-4460
▁bomb	-4461
▁bund	-4462
▁bunt	-4463
▁call	-4464
▁cans	-4465
▁capt	-4466
▁cher	-4467
▁chic	-4468
▁cinn	-4469
▁cock	-4470
▁conf	-4471
▁cord	-4472
▁cozy	-4473
▁cubs	-4474
▁cudd	-4475
▁dust	-4476
▁east	-4477
▁exam	-4478
▁feel	-4479
▁fine	-4480
▁flop	-4481
▁fond	-4482
▁idly	-4483
▁ipod	-4484
▁ital	-4485
▁last	-4486
▁loaf	-4487
▁logs	-4488
▁love	-4489
▁mans	-4490
▁meas	-4491
▁menu	-4492
▁mill	-4493
▁note	-4494
▁paus	-4495
▁peak	-4496
▁pork	-4497
▁real	-4498
▁recl	-4499
▁seed	-4500
▁shep	-4501
▁shut	-4502
▁sigh	-4503
▁sitt	-4504
▁slab	-4505
▁snap	-4506
▁stem	-4507
▁tier	-4508
▁trip	-4509
▁trot	-4510
▁vert	-4511
▁wash	-4512
▁wife	-4513
▁wrap	-4514
acters	-4515
barrow	-4516
celain	-4517
coming	-4518
ensive	-4519
hedral	-4520
orting	-4521
quoise	-4522
tender	-4523
turned	-4524
umbers	-4525
uminum	-4526
usting	-4527
vannah	-4528
vender	-4529
▁areas	-4530
▁bases	-4531
▁basic	-4532
▁berry	-4533
▁blueb	-4534
▁brand	-4535
▁broth	-4536
▁bulls	-4537
▁caged	-4538
▁cards	-4539
▁chang	-4540
▁chest	-4541
▁cliff	-4542
▁cocon	-4543
▁cords	-4544
▁could	-4545
▁depot	-4546
▁edges	-4547
▁elvis	-4548
▁entry	-4549
▁exerc	-4550
▁falls	-4551
▁flips	-4552
▁forks	-4553
▁gated	-4554
▁goose	-4555
▁grabs	-4556
▁gravy	-4557
▁great	-4558
▁grind	-4559
▁helps	-4560
▁herbs	-4561
▁hover	-4562
▁ident	-4563
▁licks	-4564
▁lives	-4565
▁loung	-4566
▁maker	-4567
▁marks	-4568
▁memor	-4569
▁motoc	-4570
▁olive	-4571
▁overg	-4572
▁overs	-4573
▁pared	-4574
▁parts	-4575
▁peace	-4576
▁plank	-4577
▁plush	-4578
▁pokes	-4579
▁posts	-4580
▁renov	-4581
▁resid	-4582
▁retro	-4583
▁robot	-4584
▁salon	-4585
▁scale	-4586
▁sells	-4587
▁shake	-4588
▁shorn	-4589
▁shots	-4590
▁sippy	-4591
▁sizes	-4592
▁sleek	-4593
▁slide	-4594
▁south	-4595
▁spire	-4596
▁squad	-4597
▁stare	-4598
▁swims	-4599
▁theme	-4600
▁think	-4601
▁towed	-4602
▁trave	-4603
▁treat	-4604
▁turns	-4605
▁vests	-4606
▁wedge	-4607
▁weird	-4608
▁wrest	-4609
ailable	-4610
angular	-4611
ational	-4612
country	-4613
minster	-4614
nequins	-4615
rabilia	-4616
unching	-4617
ustrial	-4618
▁adidas	-4619
▁amtrak	-4620
▁beyond	-4621
▁blinds	-4622
▁blocks	-4623
▁boston	-4624
▁bubble	-4625
▁capped	-4626
▁chrome	-4627
▁cloths	-4628
▁commun	-4629
▁comple	-4630
▁convey	-4631
▁cooler	-4632
▁crafts	-4633
▁creepy	-4634
▁croche	-4635
▁cutter	-4636
▁eatery	-4637
▁europe	-4638
▁fairly	-4639
▁fences	-4640
▁ferris	-4641
▁floats	-4642
▁frying	-4643
▁gothic	-4644
▁height	-4645
▁hiking	-4646
▁hurdle	-4647
▁instru	-4648
▁intric	-4649
▁jungle	-4650
▁kneels	-4651
▁knives	-4652
▁maroon	-4653
▁marshm	-4654
▁mixing	-4655
▁moored	-4656
▁paired	-4657
▁pallet	-4658
▁partly	-4659
▁peanut	-4660
▁petals	-4661
▁pigeon	-4662
▁plated	-4663
▁plenty	-4664
▁pocket	-4665
▁pointy	-4666
▁potato	-4667
▁promin	-4668
▁protru	-4669
▁purses	-4670
▁pushed	-4671
▁queens	-4672
▁racers	-4673
▁rental	-4674
▁rising	-4675
▁rubber	-4676
▁shaded	-4677
▁shapes	-4678
▁shaved	-4679
▁skinny	-4680
▁sleeve	-4681
▁sloppy	-4682
▁soaked	-4683
▁speech	-4684
▁stable	-4685
▁states	-4686
▁stoves	-4687
▁stowed	-4688
▁symbol	-4689
▁tagged	-4690
▁tanger	-4691
▁tattoo	-4692
▁thames	-4693
▁thumbs	-4694
▁tinted	-4695
▁tissue	-4696
▁towers	-4697
▁trolly	-4698
▁trough	-4699
▁tuxedo	-4700
▁unison	-4701
▁wading	-4702
▁waving	-4703
▁worker	-4704
▁writes	-4705
▁yogurt	-4706
attended	-4707
▁amongst	-4708
▁archite	-4709
▁artwork	-4710
▁athlete	-4711
▁bandana	-4712
▁bouquet	-4713
▁bricked	-4714
▁bruised	-4715
▁buckets	-4716
▁burning	-4717
▁caption	-4718
▁carrier	-4719
▁caulifl	-4720
▁cheeses	-4721
▁collect	-4722
▁convers	-4723
▁coolers	-4724
▁crashed	-4725
▁cushion	-4726
▁emergen	-4727
▁evening	-4728
▁expanse	-4729
▁express	-4730
▁flowing	-4731
▁fondant	-4732
▁glowing	-4733
▁gourmet	-4734
▁haircut	-4735
▁hammock	-4736
▁instead	-4737
▁layered	-4738
▁leashed	-4739
▁letters	-4740
▁lowered	-4741
▁morning	-4742
▁mustang	-4743
▁numeral	-4744
▁packing	-4745
▁paddles	-4746
▁parasol	-4747
▁patches	-4748
▁pathway	-4749
▁planter	-4750
▁plowing	-4751
▁pointed	-4752
▁protest	-4753
▁provide	-4754
▁quickly	-4755
▁relaxes	-4756
▁roaming	-4757
▁rocking	-4758
▁sandals	-4759
▁shadows	-4760
▁signage	-4761
▁signals	-4762
▁special	-4763
▁spotted	-4764
▁stocked	-4765
▁stomach	-4766
▁strings	-4767
▁sucking	-4768
▁utensil	-4769
▁vendors	-4770
ropolitan	-4771
▁airlines	-4772
▁aluminum	-4773
▁anchored	-4774
▁aquarium	-4775
▁awaiting	-4776
▁blocking	-4777
▁brocolli	-4778
▁burgundy	-4779
▁carpeted	-4780
▁cellular	-4781
▁cilantro	-4782
▁cinnamon	-4783
▁costumes	-4784
▁deserted	-4785
▁entering	-4786
▁filtered	-4787
▁flushing	-4788
▁greenery	-4789
▁lavender	-4790
▁longhorn	-4791
▁medicine	-4792
▁mirrored	-4793
▁mustache	-4794
▁pacifier	-4795
▁parmesan	-4796
▁portable	-4797
▁possibly	-4798
▁princess	-4799
▁probably	-4800
▁receiver	-4801
▁replaced	-4802
▁rounding	-4803
▁savannah	-4804
▁separate	-4805
▁shredded	-4806
▁silhouet	-4807
▁situated	-4808
▁somebody	-4809
▁spacious	-4810
▁stations	-4811
▁suburban	-4812
▁sunshine	-4813
▁uncooked	-4814
▁watermel	-4815
▁wildlife	-4816
▁available	-4817
▁bartender	-4818
▁bodacious	-4819
▁cathedral	-4820
▁cityscape	-4821
▁depicting	-4822
▁firetruck	-4823
▁identical	-4824
▁lifeguard	-4825
▁livestock	-4826
▁machinery	-4827
▁magazines	-4828
▁materials	-4829
▁miniature	-4830
▁motorbike	-4831
▁onlookers	-4832
▁overlooks	-4833
▁passanger	-4834
▁policeman	-4835
▁political	-4836
▁porcelain	-4837
▁selection	-4838
▁shoulders	-4839
▁sidewalks	-4840
▁somewhere	-4841
▁staircase	-4842
▁starbucks	-4843
▁stockings	-4844
▁turquoise	-4845
▁wallpaper	-4846
▁wrestling	-4847
▁blackboard	-4848
▁celebrates	-4849
▁characters	-4850
▁cheesecake	-4851
▁clocktower	-4852
▁decoration	-4853
▁department	-4854
▁dispensers	-4855
▁everything	-4856
▁everywhere	-4857
▁flashlight	-4858
▁industrial	-4859
▁lighthouse	-4860
▁mannequins	-4861
▁mechanical	-4862
▁motorbikes	-4863
▁stoplights	-4864
▁sweatshirt	-4865
▁tablecloth	-4866
▁waterfront	-4867
▁attentively	-4868
▁cauliflower	-4869
▁competitive	-4870
▁contraption	-4871
▁handicapped	-4872
▁memorabilia	-4873
▁parasailing	-4874
▁westminster	-4875
▁wheelbarrow	-4876
▁contemporary	-4877
▁instructions	-4878
▁metropolitan	-4879
▁motorcyclist	-4880
▁photographed	-4881
▁demonstrating	-4882
/4	-4883
09	-4884
25	-4885
:5	-4886
au	-4887
bl	-4888
ex	-4889
gi	-4890
ka	-4891
nd	-4892
rd	-4893
vo	-4894
29.	-4895
aco	-4896
aic	-4897
ail	-4898
alt	-4899
ami	-4900
box	-4901
bus	-4902
cad	-4903
can	-4904
cil	-4905
des	-4906
een	-4907
eli	-4908
fto	-4909
gar	-4910
gly	-4911
hak	-4912
hor	-4913
hus	-4914
ino	-4915
iod	-4916
isk	-4917
isp	-4918
ize	-4919
lat	-4920
lel	-4921
may	-4922
nsf	-4923
olk	-4924
pan	-4925
pie	-4926
ppo	-4927
ray	-4928
rus	-4929
see	-4930
tie	-4931
til	-4932
ton	-4933
ula	-4934
vas	-4935
vil	-4936
yed	-4937
▁20	-4938
▁22	-4939
▁cd	-4940
▁dw	-4941
▁er	-4942
▁es	-4943
▁ir	-4944
acks	-4945
agne	-4946
aign	-4947
ains	-4948
amas	-4949
apot	-4950
arse	-4951
aves	-4952
band	-4953
dale	-4954
dges	-4955
down	-4956
ebox	-4957
ened	-4958
enta	-4959
epad	-4960
erry	-4961
esel	-4962
etti	-4963
eyed	-4964
flow	-4965
ftop	-4966
gent	-4967
greg	-4968
gway	-4969
herd	-4970
hift	-4971
ific	-4972
igns	-4973
iosk	-4974
itor	-4975
lert	-4976
mers	-4977
mint	-4978
omes	-4979
onda	-4980
ooth	-4981
pace	-4982
pers	-4983
pper	-4984
prin	-4985
reds	-4986
rees	-4987
rian	-4988
ridg	-4989
rise	-4990
robe	-4991
rots	-4992
sely	-4993
stal	-4994
tate	-4995
town	-4996
tten	-4997
ttes	-4998
ucch	-4999
ugly	-5000
uing	-5001
urns	-5002
vily	-5003
wall	-5004
wear	-5005
▁3/4	-5006
▁atv	-5007
▁bee	-5008
▁chi	-5009
▁cly	-5010
▁cob	-5011
▁dan	-5012
▁div	-5013
▁dre	-5014
▁dvd	-5015
▁eag	-5016
▁exc	-5017
▁fab	-5018
▁fas	-5019
▁fat	-5020
▁fin	-5021
▁fog	-5022
▁ges	-5023
▁gir	-5024
▁got	-5025
▁hut	-5026
▁inf	-5027
▁joe	-5028
▁kiw	-5029
▁laz	-5030
▁led	-5031
▁lun	-5032
▁mad	-5033
▁mal	-5034
▁mcd	-5035
▁mul	-5036
▁nam	-5037
▁nor	-5038
▁nur	-5039
▁oak	-5040
▁pop	-5041
▁rag	-5042
▁say	-5043
▁sen	-5044
▁ses	-5045
▁sid	-5046
▁tim	-5047
▁too	-5048
▁vir	-5049
▁wax	-5050
▁wok	-5051
▁woo	-5052
acter	-5053
allel	-5054
anked	-5055
asser	-5056
berry	-5057
dings	-5058
eline	-5059
eries	-5060
ersby	-5061
feren	-5062
grets	-5063
hells	-5064
iforn	-5065
ishes	-5066
ities	-5067
lands	-5068
mayes	-5069
mbers	-5070
obile	-5071
ormal	-5072
phalt	-5073
piece	-5074
rabic	-5075
ready	-5076
rible	-5077
rices	-5078
routs	-5079
scale	-5080
scent	-5081
sized	-5082
speed	-5083
story	-5084
ually	-5085
ulder	-5086
undry	-5087
ustic	-5088
uting	-5089
water	-5090
xture	-5091
▁12:4	-5092
▁able	-5093
▁amaz	-5094
▁amid	-5095
▁arts	-5096
▁asia	-5097
▁bits	-5098
▁blvd	-5099
▁boom	-5100
▁bump	-5101
▁caps	-5102
▁chip	-5103
▁choo	-5104
▁club	-5105
▁crib	-5106
▁dest	-5107
▁diff	-5108
▁dime	-5109
▁ding	-5110
▁done	-5111
▁dorm	-5112
▁dual	-5113
▁ends	-5114
▁fell	-5115
▁fest	-5116
▁film	-5117
▁find	-5118
▁friz	-5119
▁gall	-5120
▁gaze	-5121
▁ging	-5122
▁gone	-5123
▁gown	-5124
▁hash	-5125
▁hawk	-5126
▁hund	-5127
▁hyrd	-5128
▁iced	-5129
▁idle	-5130
▁joke	-5131
▁jous	-5132
▁khak	-5133
▁kiss	-5134
▁kits	-5135
▁knit	-5136
▁lamb	-5137
▁lead	-5138
▁ling	-5139
▁mail	-5140
▁mary	-5141
▁mask	-5142
▁ming	-5143
▁mint	-5144
▁need	-5145
▁nine	-5146
▁oars	-5147
▁ones	-5148
▁owls	-5149
▁pads	-5150
▁pane	-5151
▁perf	-5152
▁pies	-5153
▁pigs	-5154
▁poor	-5155
▁push	-5156
▁rays	-5157
▁rect	-5158
▁rese	-5159
▁reve	-5160
▁salt	-5161
▁sauc	-5162
▁scat	-5163
▁sear	-5164
▁seem	-5165
▁sexy	-5166
▁spre	-5167
▁teac	-5168
▁tech	-5169
▁teli	-5170
▁tell	-5171
▁then	-5172
▁trad	-5173
▁tric	-5174
▁twig	-5175
▁vane	-5176
▁vans	-5177
▁vast	-5178
▁whip	-5179
▁whit	-5180
▁worn	-5181
▁york	-5182
aysian	-5183
bbling	-5184
bedded	-5185
cadent	-5186
father	-5187
ftover	-5188
iently	-5189
ieving	-5190
lywood	-5191
minton	-5192
ormous	-5193
ortant	-5194
riotic	-5195
seeing	-5196
spring	-5197
strich	-5198
uisher	-5199
umbing	-5200
urners	-5201
▁1929.	-5202
▁alert	-5203
▁amuse	-5204
▁angry	-5205
▁arena	-5206
▁array	-5207
▁badly	-5208
▁barge	-5209
▁batch	-5210
▁begin	-5211
▁biker	-5212
▁blade	-5213
▁blood	-5214
▁blows	-5215
▁bones	-5216
▁bronx	-5217
▁champ	-5218
▁china	-5219
▁crapo	-5220
▁dated	-5221
▁dense	-5222
▁devis	-5223
▁dodge	-5224
▁domed	-5225
▁drain	-5226
▁drops	-5227
▁duvet	-5228
▁dying	-5229
▁egypt	-5230
▁eight	-5231
▁expen	-5232
▁expla	-5233
▁fills	-5234
▁finis	-5235
▁fleet	-5236
▁flush	-5237
▁glaze	-5238
▁goers	-5239
▁grain	-5240
▁grave	-5241
▁guide	-5242
▁hairy	-5243
▁homes	-5244
▁honda	-5245
▁hours	-5246
▁inspe	-5247
▁jelly	-5248
▁kiosk	-5249
▁lambs	-5250
▁lanes	-5251
▁lapel	-5252
▁leave	-5253
▁liner	-5254
▁local	-5255
▁maneu	-5256
▁mixer	-5257
▁motel	-5258
▁motes	-5259
▁needs	-5260
▁negle	-5261
▁notes	-5262
▁novel	-5263
▁obama	-5264
▁occup	-5265
▁order	-5266
▁pairs	-5267
▁parka	-5268
▁parks	-5269
▁peaco	-5270
▁peeks	-5271
▁peels	-5272
▁pilot	-5273
▁plums	-5274
▁polka	-5275
▁price	-5276
▁purch	-5277
▁route	-5278
▁scape	-5279
▁shark	-5280
▁sided	-5281
▁skull	-5282
▁spill	-5283
▁start	-5284
▁steal	-5285
▁sweet	-5286
▁syrup	-5287
▁threw	-5288
▁tires	-5289
▁trade	-5290
▁tying	-5291
▁volvo	-5292
▁woven	-5293
▁wrist	-5294
▁yield	-5295
▁zucch	-5296
achment	-5297
ankment	-5298
aration	-5299
corated	-5300
erature	-5301
ference	-5302
forming	-5303
ifornia	-5304
redible	-5305
tending	-5306
unction	-5307
▁aboard	-5308
▁africa	-5309
▁angles	-5310
▁appear	-5311
▁arabic	-5312
▁arches	-5313
▁attend	-5314
▁awards	-5315
▁awning	-5316
▁babies	-5317
▁barrel	-5318
▁beanie	-5319
▁billow	-5320
▁bitten	-5321
▁blazer	-5322
▁border	-5323
▁breads	-5324
▁bronze	-5325
▁burner	-5326
▁canvas	-5327
▁casser	-5328
▁casual	-5329
▁chains	-5330
▁checks	-5331
▁cherry	-5332
▁choppy	-5333
▁citrus	-5334
▁compan	-5335
▁consum	-5336
▁copper	-5337
▁crowns	-5338
▁detour	-5339
▁diesel	-5340
▁dreary	-5341
▁egrets	-5342
▁enthus	-5343
▁entire	-5344
▁equest	-5345
▁exotic	-5346
▁exting	-5347
▁fabric	-5348
▁famous	-5349
▁fedora	-5350
▁gazing	-5351
▁growth	-5352
▁hammer	-5353
▁handed	-5354
▁herded	-5355
▁hitter	-5356
▁indian	-5357
▁inform	-5358
▁kisses	-5359
▁launch	-5360
▁liquor	-5361
▁lizard	-5362
▁looked	-5363
▁losing	-5364
▁marine	-5365
▁median	-5366
▁melted	-5367
▁member	-5368
▁milked	-5369
▁mosaic	-5370
▁mouths	-5371
▁movies	-5372
▁nature	-5373
▁nearly	-5374
▁online	-5375
▁palace	-5376
▁patchy	-5377
▁pauses	-5378
▁period	-5379
▁picked	-5380
▁pirate	-5381
▁podium	-5382
▁poised	-5383
▁poking	-5384
▁ponies	-5385
▁powder	-5386
▁prices	-5387
▁prohib	-5388
▁proper	-5389
▁raquet	-5390
▁reigns	-5391
▁rights	-5392
▁rustic	-5393
▁salmon	-5394
▁segway	-5395
▁server	-5396
▁sesame	-5397
▁sewing	-5398
▁shades	-5399
▁shaker	-5400
▁shells	-5401
▁smiley	-5402
▁speeds	-5403
▁sprays	-5404
▁stalls	-5405
▁stones	-5406
▁stored	-5407
▁strike	-5408
▁stroll	-5409
▁stting	-5410
▁teapot	-5411
▁themed	-5412
▁though	-5413
▁tiered	-5414
▁unders	-5415
▁united	-5416
▁unripe	-5417
▁unused	-5418
▁veggie	-5419
▁virgin	-5420
▁watery	-5421
▁wedged	-5422
▁wildeb	-5423
▁zombie	-5424
kerchief	-5425
ridgerat	-5426
▁already	-5427
▁arrives	-5428
▁asphalt	-5429
▁banquet	-5430
▁boulder	-5431
▁brushed	-5432
▁bundled	-5433
▁caboose	-5434
▁cameras	-5435
▁camping	-5436
▁changes	-5437
▁checked	-5438
▁chicago	-5439
▁clearly	-5440
▁closely	-5441
▁congreg	-5442
▁constru	-5443
▁contact	-5444
▁couples	-5445
▁cracker	-5446
▁crystal	-5447
▁cubicle	-5448
▁current	-5449
▁depicts	-5450
▁digging	-5451
▁dipping	-5452
▁distant	-5453
▁dolphin	-5454
▁donkeys	-5455
▁dresses	-5456
▁engaged	-5457
▁england	-5458
▁english	-5459
▁entrees	-5460
▁exiting	-5461
▁exposed	-5462
▁eyeball	-5463
▁farmers	-5464
▁filling	-5465
▁fixture	-5466
▁flaming	-5467
▁flanked	-5468
▁flipped	-5469
▁glitter	-5470
▁halfway	-5471
▁heavily	-5472
▁huddled	-5473
▁install	-5474
▁kissing	-5475
▁laundry	-5476
▁madison	-5477
▁magenta	-5478
▁mcdonal	-5479
▁medical	-5480
▁messing	-5481
▁minimal	-5482
▁mixture	-5483
▁napping	-5484
▁notepad	-5485
▁origami	-5486
▁ostrich	-5487
▁pajamas	-5488
▁pancake	-5489
▁parrots	-5490
▁peanuts	-5491
▁pitched	-5492
▁pockets	-5493
▁pressed	-5494
▁protect	-5495
▁raising	-5496
▁related	-5497
▁repairs	-5498
▁rooftop	-5499
▁rooster	-5500
▁scenery	-5501
▁singing	-5502
▁sneaker	-5503
▁snowing	-5504
▁speaker	-5505
▁sprouts	-5506
▁stained	-5507
▁sunrise	-5508
▁tasting	-5509
▁teenage	-5510
▁terrier	-5511
▁thought	-5512
▁touched	-5513
▁turning	-5514
▁upscale	-5515
▁vending	-5516
▁walkers	-5517
▁wheeler	-5518
▁whipped	-5519
▁zombies	-5520
icipating	-5521
▁armchair	-5522
▁assembly	-5523
▁backhand	-5524
▁basement	-5525
▁bathrobe	-5526
▁campaign	-5527
▁cemetary	-5528
▁cemetery	-5529
▁choosing	-5530
▁clearing	-5531
▁curbside	-5532
▁decadent	-5533
▁drizzled	-5534
▁embedded	-5535
▁emerging	-5536
▁enormous	-5537
▁equipped	-5538
▁european	-5539
▁everyone	-5540
▁exposing	-5541
▁facility	-5542
▁greeting	-5543
▁handlers	-5544
▁hovering	-5545
▁hundreds	-5546
▁japanese	-5547
▁leftover	-5548
▁lingerie	-5549
▁littered	-5550
▁location	-5551
▁magazine	-5552
▁markings	-5553
▁meatball	-5554
▁memorial	-5555
▁movement	-5556
▁oncoming	-5557
▁opponent	-5558
▁overview	-5559
▁parallel	-5560
▁parasail	-5561
▁patterns	-5562
▁peddling	-5563
▁platters	-5564
▁plumbing	-5565
▁removing	-5566
▁sheering	-5567
▁smelling	-5568
▁snuggled	-5569
▁softball	-5570
▁somewhat	-5571
▁standard	-5572
▁stirring	-5573
▁strapped	-5574
▁swimmers	-5575
▁tabletop	-5576
▁toasting	-5577
▁toilette	-5578
▁trashcan	-5579
▁tricycle	-5580
▁trimming	-5581
▁trotting	-5582
▁upturned	-5583
▁visitors	-5584
▁waitress	-5585
▁amusement	-5586
▁appearing	-5587
▁badminton	-5588
▁billowing	-5589
▁blueberry	-5590
▁boardwalk	-5591
▁butterfly	-5592
▁carefully	-5593
▁casserole	-5594
▁champagne	-5595
▁character	-5596
▁cloudless	-5597
▁commuters	-5598
▁crocheted	-5599
▁crosstown	-5600
▁cucumbers	-5601
▁defensive	-5602
▁emergency	-5603
▁employees	-5604
▁furnished	-5605
▁garnished	-5606
▁goodmayes	-5607
▁groceries	-5608
▁hollywood	-5609
▁important	-5610
▁languages	-5611
▁locations	-5612
▁makeshift	-5613
▁malaysian	-5614
▁measuring	-5615
▁neglected	-5616
▁overgrown	-5617
▁oversized	-5618
▁paperwork	-5619
▁passersby	-5620
▁patriotic	-5621
▁personnel	-5622
▁projector	-5623
▁prominent	-5624
▁scattered	-5625
▁seashells	-5626
▁snuggling	-5627
▁sprinkled	-5628
▁stretched	-5629
▁teenagers	-5630
▁travelers	-5631
▁wandering	-5632
▁workspace	-5633
▁attachment	-5634
▁attractive	-5635
▁automobile	-5636
▁bicyclists	-5637
▁california	-5638
▁cigarettes	-5639
▁conference	-5640
▁customized	-5641
▁embankment	-5642
▁expression	-5643
▁headlights	-5644
▁incredible	-5645
▁indicating	-5646
▁instructor	-5647
▁interstate	-5648
▁microwaves	-5649
▁performers	-5650
▁preforming	-5651
▁pretending	-5652
▁profession	-5653
▁protective	-5654
▁protruding	-5655
▁renovation	-5656
▁silhouette	-5657
▁stationary	-5658
▁storefront	-5659
▁stretching	-5660
▁tangerines	-5661
▁telivision	-5662
▁toiletries	-5663
▁vertically	-5664
▁volleyball	-5665
▁watermelon	-5666
▁windsurfer	-5667
▁businessman	-5668
▁celebration	-5669
▁centerpiece	-5670
▁countertops	-5671
▁grandfather	-5672
▁individuals	-5673
▁photography	-5674
▁preparation	-5675
▁prohibiting	-5676
▁rectangular	-5677
▁refridgerat	-5678
▁televisions	-5679
▁temperature	-5680
▁traditional	-5681
▁compartments	-5682
▁conversation	-5683
▁extinguisher	-5684
▁handkerchief	-5685
▁presentation	-5686
▁surroundings	-5687
01	-5688
14	-5689
30	-5690
38	-5691
47	-5692
6.	-5693
78	-5694
bq	-5695
ci	-5696
cs	-5697
gm	-5698
hs	-5699
je	-5700
ll	-5701
sw	-5702
ye	-5703
yn	-5704
▁'	-5705
▁-	-5706
▁u	-5707
500	-5708
:25	-5709
:30	-5710
ado	-5711
ald	-5712
cab	-5713
cco	-5714
cid	-5715
coa	-5716
cue	-5717
daf	-5718
din	-5719
fed	-5720
gas	-5721
gul	-5722
hin	-5723
ica	-5724
icy	-5725
ida	-5726
ien	-5727
igu	-5728
its	-5729
kia	-5730
lem	-5731
mat	-5732
mbe	-5733
men	-5734
mot	-5735
nol	-5736
off	-5737
ott	-5738
pef	-5739
ppu	-5740
pse	-5741
qui	-5742
res	-5743
ria	-5744
rif	-5745
ril	-5746
rum	-5747
ssy	-5748
uin	-5749
umn	-5750
vig	-5751
xim	-5752
yer	-5753
ynn	-5754
▁23	-5755
▁41	-5756
▁55	-5757
▁dc	-5758
▁mn	-5759
▁mp	-5760
▁nd	-5761
▁pu	-5762
acam	-5763
acht	-5764
aggy	-5765
alia	-5766
amer	-5767
anna	-5768
ards	-5769
ased	-5770
atme	-5771
aver	-5772
blue	-5773
book	-5774
buds	-5775
bury	-5776
cier	-5777
cies	-5778
coat	-5779
dney	-5780
ebur	-5781
eled	-5782
elow	-5783
eson	-5784
foil	-5785
folk	-5786
gate	-5787
iger	-5788
iile	-5789
iing	-5790
ilar	-5791
inar	-5792
itch	-5793
jewe	-5794
kins	-5795
ksgi	-5796
lacs	-5797
liet	-5798
mony	-5799
atm	-5800
cts	-5801
ctu	-5802
ret	-5803
ule	-5804
vol	-5805
▁32	-5806
▁vo	-5807
aint	-5808
arta	-5809
game	-5810
hone	-5811
imot	-5812
ival	-5813
mble	-5814
nolo	-5815
oked	-5816
oper	-5817
orea	-5818
pect	-5819
pipe	-5820
plug	-5821
post	-5822
quee	-5823
rail	-5824
reme	-5825
roit	-5826
rong	-5827
rung	-5828
seat	-5829
sect	-5830
shop	-5831
tage	-5832
tail	-5833
teen	-5834
ubby	-5835
ucan	-5836
uges	-5837
uore	-5838
urce	-5839
used	-5840
with	-5841
▁122	-5842
▁138	-5843
▁age	-5844
▁aim	-5845
▁ais	-5846
▁ala	-5847
▁alp	-5848
▁bbq	-5849
▁bil	-5850
▁bmw	-5851
▁bmx	-5852
▁bud	-5853
▁bug	-5854
▁cog	-5855
▁cot	-5856
▁dad	-5857
▁deb	-5858
▁dun	-5859
▁dut	-5860
▁fox	-5861
▁gad	-5862
▁ger	-5863
▁gho	-5864
▁gig	-5865
▁hon	-5866
▁hoo	-5867
▁icy	-5868
▁ign	-5869
▁igu	-5870
▁ina	-5871
▁jum	-5872
▁lic	-5873
▁mgm	-5874
▁nan	-5875
▁non	-5876
▁pri	-5877
▁pud	-5878
▁rig	-5879
▁rin	-5880
▁rod	-5881
▁son	-5882
▁sum	-5883
▁swe	-5884
▁tam	-5885
▁tar	-5886
▁tas	-5887
▁teh	-5888
▁tot	-5889
▁twp	-5890
▁unb	-5891
▁upr	-5892
▁var	-5893
▁wig	-5894
▁wil	-5895
▁win	-5896
▁yaw	-5897
aired	-5898
ality	-5899
cot	-5900
dys	-5901
pub	-5902
▁iv	-5903
aled	-5904
amel	-5905
cent	-5906
enty	-5907
fire	-5908
gets	-5909
iast	-5910
mill	-5911
orth	-5912
ough	-5913
plan	-5914
port	-5915
tern	-5916
tosh	-5917
▁alt	-5918
▁asp	-5919
▁hug	-5920
▁sip	-5921
▁sox	-5922
▁spa	-5923
▁vac	-5924
annel	-5925
antic	-5926
apers	-5927
arded	-5928
arter	-5929
aster	-5930
aving	-5931
bands	-5932
bbled	-5933
becue	-5934
bread	-5935
cards	-5936
ccino	-5937
centr	-5938
chand	-5939
child	-5940
cient	-5941
eests	-5942
ement	-5943
ensor	-5944
ental	-5945
erior	-5946
ernal	-5947
field	-5948
gical	-5949
hello	-5950
hette	-5951
icles	-5952
idate	-5953
iddle	-5954
iders	-5955
iency	-5956
iffel	-5957
ilers	-5958
ilies	-5959
ilted	-5960
iring	-5961
melet	-5962
ocado	-5963
ocked	-5964
orail	-5965
orget	-5966
oring	-5967
osaur	-5968
osure	-5969
ousel	-5970
oween	-5971
pical	-5972
ppost	-5973
quila	-5974
ralia	-5975
rical	-5976
rispy	-5977
stage	-5978
sters	-5979
stret	-5980
style	-5981
tilla	-5982
toman	-5983
uctor	-5984
uffle	-5985
ycles	-5986
▁1950	-5987
▁ages	-5988
▁answ	-5989
▁anza	-5990
▁auro	-5991
▁auto	-5992
▁bake	-5993
▁barb	-5994
▁bark	-5995
▁bead	-5996
▁begs	-5997
▁bnsf	-5998
▁boar	-5999
end	-6000
ike	-6001
net	-6002
▁21	-6003
▁ax	-6004
brid	-6005
ffel	-6006
hich	-6007
mark	-6008
rets	-6009
seed	-6010
uces	-6011
ucky	-6012
▁278	-6013
▁isn	-6014
▁tap	-6015
▁tip	-6016
▁unp	-6017
▁vul	-6018
dated	-6019
ender	-6020
flies	-6021
ished	-6022
phies	-6023
quets	-6024
ugged	-6025
uries	-6026
wning	-6027
▁aust	-6028
▁bows	-6029
▁brid	-6030
▁brit	-6031
▁brun	-6032
▁buss	-6033
▁bust	-6034
▁came	-6035
▁camo	-6036
▁cane	-6037
▁chat	-6038
▁clad	-6039
▁coke	-6040
▁cole	-6041
▁crop	-6042
▁cuis	-6043
▁date	-6044
▁dell	-6045
▁diag	-6046
▁digs	-6047
▁disg	-6048
▁dots	-6049
▁drug	-6050
▁dull	-6051
▁dumb	-6052
▁dyed	-6053
▁ecla	-6054
▁fern	-6055
▁file	-6056
▁fort	-6057
▁gain	-6058
▁gang	-6059
▁glow	-6060
▁heat	-6061
▁hind	-6062
▁horn	-6063
▁hunk	-6064
▁insp	-6065
▁isle	-6066
▁jogg	-6067
▁keys	-6068
▁kiwi	-6069
▁lazy	-6070
▁legg	-6071
▁list	-6072
▁lost	-6073
▁lung	-6074
▁lynn	-6075
▁mall	-6076
▁mama	-6077
▁mens	-6078
▁mesh	-6079
▁mice	-6080
▁mile	-6081
▁mote	-6082
▁mudd	-6083
▁obsc	-6084
▁oxen	-6085
▁page	-6086
▁pant	-6087
▁peer	-6088
▁peng	-6089
▁pers	-6090
▁pews	-6091
▁pill	-6092
▁plug	-6093
▁plus	-6094
▁poll	-6095
▁pudd	-6096
▁pure	-6097
▁rabb	-6098
▁raft	-6099
bag	-6100
del	-6101
▁".	-6102
dled	-6103
ians	-6104
izon	-6105
kite	-6106
lica	-6107
rely	-6108
sive	-6109
tens	-6110
tled	-6111
▁est	-6112
▁orb	-6113
amese	-6114
angle	-6115
atula	-6116
cedes	-6117
graph	-6118
plash	-6119
ridor	-6120
▁boun	-6121
▁cops	-6122
▁craw	-6123
▁frog	-6124
▁hogs	-6125
▁kidd	-6126
▁kilt	-6127
▁laun	-6128
▁loit	-6129
▁miss	-6130
▁naps	-6131
▁nest	-6132
▁pale	-6133
▁rhin	-6134
▁roam	-6135
▁root	-6136
▁rugs	-6137
▁sack	-6138
▁sams	-6139
▁sequ	-6140
▁shed	-6141
▁sher	-6142
▁shoo	-6143
▁sick	-6144
▁skid	-6145
▁slaw	-6146
▁smot	-6147
▁sony	-6148
▁spir	-6149
▁stay	-6150
▁sure	-6151
▁tarp	-6152
▁tass	-6153
▁teal	-6154
▁tear	-6155
▁thee	-6156
▁tide	-6157
▁tins	-6158
▁torn	-6159
▁trap	-6160
▁tuna	-6161
▁twil	-6162
▁ugly	-6163
▁unde	-6164
▁unop	-6165
▁unto	-6166
▁user	-6167
▁util	-6168
▁want	-6169
▁wavy	-6170
▁weat	-6171
▁whoa	-6172
▁whom	-6173
▁wipe	-6174
▁wolf	-6175
▁worm	-6176
alking	-6177
allows	-6178
angers	-6179
arkles	-6180
arming	-6181
arrows	-6182
atmeal	-6183
atures	-6184
bridge	-6185
chment	-6186
ctuary	-6187
ctures	-6188
dafone	-6189
elines	-6190
ellows	-6191
ential	-6192
ention	-6193
filled	-6194
flower	-6195
garita	-6196
gested	-6197
greens	-6198
haired	-6199
lets	-6200
wise	-6201
▁747	-6202
▁hub	-6203
▁mut	-6204
▁wid	-6205
adway	-6206
cases	-6207
▁bond	-6208
▁eyed	-6209
▁kale	-6210
▁mash	-6211
▁paid	-6212
▁pegs	-6213
▁rasp	-6214
aments	-6215
ctural	-6216
horses	-6217
huahua	-6218
icular	-6219
idings	-6220
ifying	-6221
illing	-6222
ineral	-6223
intosh	-6224
irling	-6225
itting	-6226
latter	-6227
letely	-6228
mbling	-6229
merged	-6230
onents	-6231
perate	-6232
rected	-6233
roller	-6234
rought	-6235
rument	-6236
screen	-6237
selfie	-6238
ughter	-6239
ulated	-6240
ultane	-6241
ussion	-6242
usters	-6243
verted	-6244
veseat	-6245
vilion	-6246
volved	-6247
▁12:43	-6248
▁abund	-6249
▁accom	-6250
▁added	-6251
▁adorn	-6252
▁alter	-6253
▁analo	-6254
▁angel	-6255
▁apart	-6256
▁april	-6257
▁audio	-6258
▁baker	-6259
▁beads	-6260
▁beams	-6261
▁beech	-6262
▁bends	-6263
▁bento	-6264
▁bloom	-6265
▁bloss	-6266
▁blown	-6267
▁booze	-6268
▁boxed	-6269
▁boxer	-6270
▁brace	-6271
▁brake	-6272
▁broom	-6273
▁burnt	-6274
▁cages	-6275
▁candy	-6276
▁cappu	-6277
▁chess	-6278
▁chews	-6279
▁cocoa	-6280
▁combs	-6281
▁comic	-6282
▁compo	-6283
▁coral	-6284
▁crisp	-6285
▁crows	-6286
▁crumb	-6287
▁crypt	-6288
▁curly	-6289
▁curvy	-6290
▁dance	-6291
▁depar	-6292
▁deter	-6293
▁dingy	-6294
▁disor	-6295
▁docks	-6296
▁draft	-6297
▁drape	-6298
▁dunes	-6299
▁dutch	-6300
▁eagle	-6301
▁effic	-6302
▁faded	-6303
▁fedex	-6304
▁films	-6305
▁fixed	-6306
▁fixes	-6307
▁flops	-6308
▁focal	-6309
▁fours	-6310
▁frequ	-6311
▁frizz	-6312
▁fryer	-6313
▁futon	-6314
▁gauge	-6315
▁ghost	-6316
▁gifts	-6317
▁greet	-6318
▁heard	-6319
▁hello	-6320
▁hoses	-6321
▁inner	-6322
▁italy	-6323
▁khaki	-6324
▁korea	-6325
▁laden	-6326
▁lands	-6327
▁layed	-6328
▁leafs	-6329
▁limbs	-6330
▁limes	-6331
▁limit	-6332
▁linen	-6333
▁loads	-6334
▁lower	-6335
▁mango	-6336
▁maple	-6337
▁minor	-6338
▁mogul	-6339
▁moose	-6340
▁moths	-6341
▁motif	-6342
▁named	-6343
▁nasty	-6344
▁naval	-6345
▁navig	-6346
▁necks	-6347
▁nokia	-6348
▁paths	-6349
▁peach	-6350
▁peers	-6351
▁perch	-6352
▁picks	-6353
▁pouch	-6354
▁pours	-6355
▁purpo	-6356
▁quite	-6357
▁racks	-6358
▁radar	-6359
▁react	-6360
▁reeds	-6361
▁robes	-6362
▁rooms	-6363
▁ropes	-6364
▁roses	-6365
▁rugby	-6366
▁ruins	-6367
▁rules	-6368
▁sanit	-6369
▁score	-6370
▁scott	-6371
▁scrap	-6372
▁seeds	-6373
▁sepia	-6374
▁sheer	-6375
▁sighn	-6376
▁slush	-6377
▁smith	-6378
▁sorts	-6379
▁speak	-6380
▁spice	-6381
▁spicy	-6382
▁spins	-6383
▁squee	-6384
▁stake	-6385
▁state	-6386
▁surpr	-6387
▁swamp	-6388
▁talbe	-6389
▁taped	-6390
▁teamm	-6391
▁tells	-6392
▁texas	-6393
▁tiger	-6394
▁times	-6395
▁tired	-6396
▁torch	-6397
▁torso	-6398
▁trans	-6399
▁trink	-6400
▁units	-6401
▁upper	-6402
▁views	-6403
▁visib	-6404
▁wheat	-6405
▁whine	-6406
▁whisk	-6407
▁wipes	-6408
▁witha	-6409
▁would	-6410
▁yacht	-6411
▁yummy	-6412
acamole	-6413
berries	-6414
cessary	-6415
covered	-6416
desdale	-6417
eburger	-6418
flowers	-6419
gentrif	-6420
inctive	-6421
inesses	-6422
itating	-6423
itorium	-6424
jeweled	-6425
ongings	-6426
ouncing	-6427
outside	-6428
pective	-6429
pefruit	-6430
ressive	-6431
riguing	-6432
sailing	-6433
shopped	-6434
striped	-6435
tenance	-6436
veloped	-6437
vention	-6438
▁adorns	-6439
▁alpine	-6440
▁amidst	-6441
▁angled	-6442
▁ashore	-6443
▁aurora	-6444
▁backed	-6445
▁bagels	-6446
▁barack	-6447
▁barred	-6448
▁beaded	-6449
▁beauty	-6450
▁bigger	-6451
▁biking	-6452
▁bought	-6453
▁boxing	-6454
▁brides	-6455
▁bullet	-6456
▁bumper	-6457
▁buried	-6458
▁bushel	-6459
▁busses	-6460
▁called	-6461
▁caring	-6462
▁centre	-6463
▁change	-6464
▁chubby	-6465
▁cigars	-6466
▁cooker	-6467
▁cranes	-6468
▁crates	-6469
▁creamy	-6470
▁croiss	-6471
▁crusty	-6472
▁cuddle	-6473
▁darkly	-6474
▁descen	-6475
▁detail	-6476
▁disney	-6477
▁diving	-6478
▁dollop	-6479
▁donald	-6480
▁downed	-6481
▁dragon	-6482
▁duffel	-6483
▁eiffel	-6484
▁eleven	-6485
▁enjoys	-6486
▁enough	-6487
▁except	-6488
▁fields	-6489
▁figure	-6490
▁filmed	-6491
▁filthy	-6492
▁finish	-6493
▁flambe	-6494
▁flames	-6495
▁fluore	-6496
▁formed	-6497
▁frizzy	-6498
▁fronts	-6499
▁future	-6500
▁gauges	-6501
▁german	-6502
▁gladys	-6503
▁glider	-6504
▁googly	-6505
▁grainy	-6506
▁granny	-6507
▁greets	-6508
▁grinds	-6509
▁grooms	-6510
▁guided	-6511
▁guides	-6512
▁haight	-6513
▁halter	-6514
▁halved	-6515
▁hangar	-6516
▁hedges	-6517
▁highly	-6518
▁holdng	-6519
▁holing	-6520
▁hoodie	-6521
▁hoping	-6522
▁horned	-6523
▁horser	-6524
▁housed	-6525
▁hybrid	-6526
▁icebox	-6527
▁iguana	-6528
▁infant	-6529
▁insect	-6530
▁jogger	-6531
▁jumped	-6532
▁kiddie	-6533
▁knight	-6534
▁krispy	-6535
▁ladder	-6536
▁lazily	-6537
▁letter	-6538
▁levels	-6539
▁lifted	-6540
▁lilacs	-6541
▁linens	-6542
▁lunges	-6543
▁mantle	-6544
▁manual	-6545
▁midair	-6546
▁mingle	-6547
▁modest	-6548
▁moment	-6549
▁mounds	-6550
▁normal	-6551
▁omelet	-6552
▁padded	-6553
▁panini	-6554
▁pastel	-6555
▁pastor	-6556
▁patron	-6557
▁pawing	-6558
▁pencil	-6559
▁pinned	-6560
▁piping	-6561
▁placid	-6562
▁plaque	-6563
▁polent	-6564
▁polish	-6565
▁posses	-6566
▁preser	-6567
▁prints	-6568
▁puppet	-6569
▁pushes	-6570
▁quiche	-6571
▁rabbit	-6572
▁raises	-6573
▁rather	-6574
▁recipe	-6575
▁region	-6576
▁relish	-6577
▁rested	-6578
▁ridden	-6579
▁rotten	-6580
▁rowers	-6581
▁sailor	-6582
▁saucer	-6583
▁sauces	-6584
▁scroll	-6585
▁sculpt	-6586
▁search	-6587
▁sensor	-6588
▁shaggy	-6589
▁should	-6590
▁skiier	-6591
▁sleepy	-6592
▁slides	-6593
▁sloped	-6594
▁smooth	-6595
▁source	-6596
▁sparse	-6597
▁sparta	-6598
▁speaks	-6599
▁spices	-6600
▁spires	-6601
▁spring	-6602
▁stages	-6603
▁straws	-6604
▁strugg	-6605
▁strung	-6606
▁stucco	-6607
▁studio	-6608
▁styled	-6609
▁styles	-6610
▁suburb	-6611
▁sweets	-6612
▁sydney	-6613
▁tamale	-6614
▁temple	-6615
▁thinks	-6616
▁tipped	-6617
▁toliet	-6618
▁tossed	-6619
▁toucan	-6620
▁towing	-6621
▁treats	-6622
▁tshirt	-6623
▁tucked	-6624
▁twenty	-6625
▁uphill	-6626
▁waling	-6627
▁walker	-6628
▁walled	-6629
▁waring	-6630
▁weight	-6631
▁whiile	-6632
▁wiimot	-6633
▁windso	-6634
▁wonder	-6635
▁woolen	-6636
andments	-6637
boarders	-6638
chandise	-6639
ksgiving	-6640
orgetown	-6641
princess	-6642
vertible	-6643
▁alertly	-6644
▁altered	-6645
▁ancient	-6646
▁applies	-6647
▁arrived	-6648
▁ashbury	-6649
▁avocado	-6650
▁baseman	-6651
▁bigelow	-6652
▁blazers	-6653
▁blinder	-6654
▁blocked	-6655
▁boarded	-6656
▁bottled	-6657
▁british	-6658
▁browned	-6659
▁bunched	-6660
▁burgers	-6661
▁burners	-6662
▁cabbage	-6663
▁capital	-6664
▁caramel	-6665
▁carving	-6666
▁central	-6667
▁certain	-6668
▁challen	-6669
▁channel	-6670
▁checker	-6671
▁clutter	-6672
▁cobbled	-6673
▁coconut	-6674
▁colgate	-6675
▁college	-6676
▁company	-6677
▁complex	-6678
▁concept	-6679
▁contest	-6680
▁cooktop	-6681
▁cooling	-6682
▁crooked	-6683
▁crusted	-6684
▁cuddles	-6685
▁cuisine	-6686
▁dancing	-6687
▁detroit	-6688
▁devises	-6689
▁docking	-6690
▁earbuds	-6691
▁engines	-6692
▁excited	-6693
▁extreme	-6694
▁fielder	-6695
▁filming	-6696
▁flatbed	-6697
▁florida	-6698
▁flowery	-6699
▁focused	-6700
▁frisbie	-6701
▁frizbee	-6702
▁furnace	-6703
▁gadgets	-6704
▁gingham	-6705
▁glacier	-6706
▁griddle	-6707
▁guitars	-6708
▁handled	-6709
▁hitched	-6710
▁incense	-6711
▁injured	-6712
▁intense	-6713
▁italian	-6714
▁jerseys	-6715
▁juicing	-6716
▁labeled	-6717
▁leashes	-6718
▁license	-6719
▁listing	-6720
▁lounges	-6721
▁lunging	-6722
▁meaning	-6723
▁members	-6724
▁milling	-6725
▁mineral	-6726
▁monster	-6727
▁montage	-6728
▁muddied	-6729
▁muffins	-6730
▁norfolk	-6731
▁novelty	-6732
▁nursing	-6733
▁oatmeal	-6734
▁onstage	-6735
▁ordered	-6736
▁ottoman	-6737
▁outline	-6738
▁package	-6739
▁paneled	-6740
▁panting	-6741
▁partial	-6742
▁partner	-6743
▁passage	-6744
▁peaches	-6745
▁peaking	-6746
▁pecking	-6747
▁peeling	-6748
▁penguin	-6749
▁perfect	-6750
▁pillars	-6751
▁planted	-6752
▁plugged	-6753
▁politic	-6754
▁posters	-6755
▁pudding	-6756
▁puddles	-6757
▁pursing	-6758
▁quarter	-6759
▁quilted	-6760
▁regular	-6761
▁remodel	-6762
▁replica	-6763
▁ridding	-6764
▁rowboat	-6765
▁samsung	-6766
▁scissor	-6767
▁scraper	-6768
▁sending	-6769
▁serious	-6770
▁sharpie	-6771
▁shepard	-6772
▁shutter	-6773
▁siamese	-6774
▁sidecar	-6775
▁similar	-6776
▁sipping	-6777
▁snuggle	-6778
▁spatula	-6779
▁spewing	-6780
▁spreads	-6781
▁squares	-6782
▁staning	-6783
▁stemmed	-6784
▁stories	-6785
▁streeet	-6786
▁stretch	-6787
▁strikes	-6788
▁sunning	-6789
▁support	-6790
▁tagging	-6791
▁takeout	-6792
▁tassels	-6793
▁teacher	-6794
▁teaches	-6795
▁televis	-6796
▁tequila	-6797
▁texting	-6798
▁thruway	-6799
▁tickets	-6800
▁tinfoil	-6801
▁touring	-6802
▁tourist	-6803
▁trimmed	-6804
▁tugboat	-6805
▁turnips	-6806
▁typical	-6807
▁upright	-6808
▁varying	-6809
▁waffles	-6810
▁warming	-6811
▁watched	-6812
▁wheelie	-6813
▁wilting	-6814
▁wrapper	-6815
▁wrought	-6816
▁yawning	-6817
ersonator	-6818
stretched	-6819
▁actively	-6820
▁altitude	-6821
▁anything	-6822
▁approach	-6823
▁arriving	-6824
▁backseat	-6825
▁bandanna	-6826
▁barbecue	-6827
▁birdseed	-6828
▁bodysuit	-6829
▁bordered	-6830
▁bouncing	-6831
▁broadway	-6832
▁browsing	-6833
▁brunette	-6834
▁buidings	-6835
▁campfire	-6836
▁captured	-6837
▁cardinal	-6838
▁carousel	-6839
▁ceremony	-6840
▁charging	-6841
▁charming	-6842
▁checkers	-6843
▁cleaners	-6844
▁clusters	-6845
▁cocktail	-6846
▁coconuts	-6847
▁competes	-6848
▁concentr	-6849
▁confetti	-6850
▁confront	-6851
▁consists	-6852
▁contempl	-6853
▁conveyer	-6854
▁conveyor	-6855
▁cookware	-6856
▁cordless	-6857
▁corridor	-6858
▁costumed	-6859
▁crouches	-6860
▁daughter	-6861
▁daylight	-6862
▁defender	-6863
▁describe	-6864
▁detailed	-6865
▁diffrent	-6866
▁dinosaur	-6867
▁directed	-6868
▁dolphins	-6869
▁domestic	-6870
▁downward	-6871
▁dragging	-6872
▁dressing	-6873
▁dripping	-6874
▁drooping	-6875
▁dwelling	-6876
▁egyptian	-6877
▁elements	-6878
▁employee	-6879
▁engaging	-6880
▁examines	-6881
▁exercise	-6882
▁exposure	-6883
▁exterior	-6884
▁external	-6885
▁eyeballs	-6886
▁families	-6887
▁featured	-6888
▁festival	-6889
▁figurine	-6890
▁fillings	-6891
▁fireplug	-6892
▁flavored	-6893
▁formally	-6894
▁freezers	-6895
▁frowning	-6896
▁gestures	-6897
▁gigantic	-6898
▁grilling	-6899
▁grouping	-6900
▁growling	-6901
▁handling	-6902
▁handmade	-6903
▁headless	-6904
▁helmeted	-6905
▁horrible	-6906
▁injuries	-6907
▁inverted	-6908
▁involved	-6909
▁junction	-6910
▁lamppost	-6911
▁lounging	-6912
▁loveseat	-6913
▁maintain	-6914
▁majestic	-6915
▁maneuver	-6916
▁marching	-6917
▁mercedes	-6918
▁monorail	-6919
▁neckties	-6920
▁occupied	-6921
▁onlooker	-6922
▁operated	-6923
▁operates	-6924
▁ordering	-6925
▁ornately	-6926
▁outdated	-6927
▁packaged	-6928
▁packages	-6929
▁parasols	-6930
▁pavilion	-6931
▁pitchers	-6932
▁placemat	-6933
▁possible	-6934
▁property	-6935
▁pumpkins	-6936
▁punching	-6937
▁readying	-6938
▁reclined	-6939
▁recliner	-6940
▁repaired	-6941
▁restored	-6942
▁returned	-6943
▁seperate	-6944
▁serviced	-6945
▁shepherd	-6946
▁shipyard	-6947
▁showroom	-6948
▁signpost	-6949
▁skidding	-6950
▁spanning	-6951
▁sparkles	-6952
▁sparrows	-6953
▁splatter	-6954
▁sporting	-6955
▁steering	-6956
▁stemware	-6957
▁stepping	-6958
▁stomping	-6959
▁striking	-6960
▁stroller	-6961
▁stuffing	-6962
▁sunlight	-6963
▁tattooed	-6964
▁technolo	-6965
▁tortilla	-6966
▁trailing	-6967
▁trinkets	-6968
▁trophies	-6969
▁twilight	-6970
▁twirling	-6971
▁unopened	-6972
▁victoria	-6973
▁visiting	-6974
▁vodafone	-6975
▁vultures	-6976
▁wheelers	-6977
▁windmill	-6978
▁wrapping	-6979
▁zucchini	-6980
▁abundance	-6981
▁amazement	-6982
▁answering	-6983
▁appliance	-6984
▁attendant	-6985
▁attending	-6986
▁attention	-6987
▁australia	-6988
▁automatic	-6989
▁backwards	-6990
▁baseballs	-6991
▁bejeweled	-6992
▁cambridge	-6993
▁candidate	-6994
▁carriages	-6995
▁chihuahua	-6996
▁comically	-6997
▁component	-6998
▁conductor	-6999
▁congested	-7000
▁creatures	-7001
▁crumbling	-7002
▁curiously	-7003
▁delivered	-7004
▁detailing	-7005
▁directing	-7006
▁discarded	-7007
▁dribbling	-7008
▁eachother	-7009
▁expensive	-7010
▁extending	-7011
▁finishing	-7012
▁flamingos	-7013
▁flatbread	-7014
▁galloping	-7015
▁guacamole	-7016
▁halloween	-7017
▁happening	-7018
▁intricate	-7019
▁loitering	-7020
▁macintosh	-7021
▁margarita	-7022
▁mcdonalds	-7023
▁meatballs	-7024
▁motocross	-7025
▁multitude	-7026
▁necessary	-7027
▁obstacles	-7028
▁ornaments	-7029
▁otherwise	-7030
▁packaging	-7031
▁parchment	-7032
▁patiently	-7033
▁plantains	-7034
▁plastered	-7035
▁positions	-7036
▁presented	-7037
▁projected	-7038
▁receiving	-7039
▁renovated	-7040
▁residence	-7041
▁revealing	-7042
▁sanctuary	-7043
▁sandwhich	-7044
▁seahorses	-7045
▁seasoning	-7046
▁sectional	-7047
▁separated	-7048
▁sidelines	-7049
▁simultane	-7050
▁skatepark	-7051
▁smothered	-7052
▁socialize	-7053
▁splashing	-7054
▁stillness	-7055
▁streaking	-7056
▁submerged	-7057
▁sunflower	-7058
▁telegraph	-7059
▁underpass	-7060
▁underside	-7061
▁underwear	-7062
▁unloading	-7063
▁vegetated	-7064
▁videogame	-7065
▁walgreens	-7066
▁weathered	-7067
▁wondering	-7068
▁youngster	-7069
gentrifying	-7070
▁additional	-7071
▁auditorium	-7072
▁backsplash	-7073
▁belongings	-7074
▁businesses	-7075
▁cappuccino	-7076
▁clydesdale	-7077
▁colorfully	-7078
▁completely	-7079
▁convention	-7080
▁discussion	-7081
▁disgusting	-7082
▁efficiency	-7083
▁enthusiast	-7084
▁equestrian	-7085
▁explaining	-7086
▁eyeglasses	-7087
▁flatscreen	-7088
▁frequently	-7089
▁georgetown	-7090
▁grapefruit	-7091
▁historical	-7092
▁impressive	-7093
▁instrument	-7094
▁interested	-7095
▁intriguing	-7096
▁newspapers	-7097
▁nightstand	-7098
▁overlooked	-7099
▁passangers	-7100
▁peacefully	-7101
▁propellers	-7102
▁resembling	-7103
▁scoreboard	-7104
▁seasonings	-7105
▁separating	-7106
▁skillfully	-7107
▁structures	-7108
▁unattended	-7109
▁underwater	-7110
▁visibility	-7111
▁automobiles	-7112
▁beautifully	-7113
▁butterflies	-7114
▁collectible	-7115
▁comfortably	-7116
▁competitors	-7117
▁congregated	-7118
▁constructed	-7119
▁consumption	-7120
▁convertible	-7121
▁description	-7122
▁destination	-7123
▁distinctive	-7124
▁fashionable	-7125
▁fluorescent	-7126
▁maintenance	-7127
▁merchandise	-7128
▁perspective	-7129
▁reflections	-7130
▁restaurants	-7131
▁screensaver	-7132
▁sightseeing	-7133
▁silhouetted	-7134
▁silhouettes	-7135
▁skyscrapers	-7136
▁socializing	-7137
▁specialized	-7138
▁streamlined	-7139
▁streetlight	-7140
▁undecorated	-7141
▁wildebeests	-7142
▁windsurfing	-7143
▁wineglasses	-7144
▁architecture	-7145
▁artistically	-7146
▁checkerboard	-7147
▁cheeseburger	-7148
▁commandments	-7149
▁decoratively	-7150
▁homelessness	-7151
▁impersonator	-7152
▁marshmallows	-7153
▁marshmellows	-7154
▁outstretched	-7155
▁photoshopped	-7156
▁streetlights	-7157
▁thanksgiving	-7158
▁transporting	-7159
▁architectural	-7160
▁confrontation	-7161
▁participating	-7162
▁photographers	-7163
▁photographing	-7164
▁refridgerator	-7165
▁advertisements	-7166
▁professionally	-7167
▁simultaneously	-7168
-29	-7169
.",	-7170
.01	-7171
/50	-7172
009	-7173
011	-7174
09.	-7175
:29	-7176
:44	-7177
:55	-7178
:58	-7179
awl	-7180
buy	-7181
noy	-7182
ohu	-7183
vws	-7184
▁4:	-7185
▁50	-7186
▁70	-7187
-29-	-7188
.01.	-7189
011.	-7190
2009	-7191
:44.	-7192
:46.	-7193
:58.	-7194
atht	-7195
auai	-7196
bike	-7197
caly	-7198
cano	-7199
▁63	-7200
culi	-7201
desk	-7202
flip	-7203
frid	-7204
haws	-7205
hole	-7206
iams	-7207
ifoc	-7208
itng	-7209
jita	-7210
lemn	-7211
mote	-7212
ngth	-7213
ocer	-7214
okly	-7215
ooze	-7216
rewd	-7217
russ	-7218
sues	-7219
tbee	-7220
ttoo	-7221
uums	-7222
worn	-7223
ylar	-7224
▁10:	-7225
▁120	-7226
▁191	-7227
▁4:2	-7228
▁55.	-7229
▁66.	-7230
▁abn	-7231
▁awk	-7232
▁baa	-7233
▁bae	-7234
▁csa	-7235
▁cyl	-7236
▁dye	-7237
▁hik	-7238
▁ifs	-7239
▁keg	-7240
▁oll	-7241
▁pyl	-7242
▁rye	-7243
▁sgn	-7244
▁udd	-7245
▁viw	-7246
▁wti	-7247
2011.	-7248
500".	-7249
aggle	-7250
agoda	-7251
alcon	-7252
amaha	-7253
andex	-7254
arfed	-7255
artho	-7256
aterh	-7257
athon	-7258
belly	-7259
burns	-7260
cabin	-7261
cohop	-7262
consc	-7263
elisk	-7264
elvet	-7265
espas	-7266
ettes	-7267
fevws	-7268
goyle	-7269
holes	-7270
horse	-7271
ichen	-7272
iggly	-7273
iliar	-7274
ilope	-7275
impse	-7276
inara	-7277
irely	-7278
kebox	-7279
matic	-7280
minto	-7281
ocent	-7282
ocini	-7283
okane	-7284
oklyn	-7285
oleum	-7286
olina	-7287
ompas	-7288
onnet	-7289
panel	-7290
panic	-7291
print	-7292
quita	-7293
reezy	-7294
rider	-7295
rogen	-7296
sicle	-7297
strip	-7298
suits	-7299
new	-7300
bnsf	-7301
lton	-7302
neck	-7303
newl	-7304
apple	-7305
enapp	-7306
gonom	-7307
hemed	-7308
iates	-7309
plane	-7310
ureau	-7311
urham	-7312
ussie	-7313
utral	-7314
vetop	-7315
ville	-7316
ximum	-7317
ylces	-7318
▁1917	-7319
▁2:30	-7320
▁6309	-7321
▁8:25	-7322
▁abre	-7323
▁acts	-7324
▁argy	-7325
▁asym	-7326
▁avid	-7327
▁axes	-7328
▁baxt	-7329
▁bilk	-7330
▁bilt	-7331
▁blee	-7332
▁bodt	-7333
▁bulb	-7334
▁claw	-7335
▁coca	-7336
▁dawn	-7337
▁dwel	-7338
▁erot	-7339
▁erro	-7340
▁expl	-7341
▁eyec	-7342
▁ferr	-7343
▁flea	-7344
▁goof	-7345
▁goog	-7346
▁hald	-7347
▁hugs	-7348
▁iris	-7349
▁jail	-7350
▁lama	-7351
▁lope	-7352
▁minn	-7353
▁mums	-7354
▁muti	-7355
▁navy	-7356
▁nozy	-7357
▁owns	-7358
▁prim	-7359
▁priv	-7360
▁rubb	-7361
▁russ	-7362
▁samp	-7363
▁summ	-7364
▁susp	-7365
▁took	-7366
▁tuck	-7367
▁tyne	-7368
▁vict	-7369
▁wilt	-7370
▁winn	-7371
▁wisp	-7372
▁witj	-7373
▁yolk	-7374
acchan	-7375
agerie	-7376
agonal	-7377
antern	-7378
aplane	-7379
artney	-7380
bished	-7381
chemes	-7382
ckskin	-7383
culiar	-7384
cuting	-7385
drogen	-7386
edings	-7387
epaper	-7388
erizon	-7389
erscot	-7390
estern	-7391
estled	-7392
etalia	-7393
eteran	-7394
gasmic	-7395
gorets	-7396
ifocal	-7397
inates	-7398
inegar	-7399
bear	-7400
cils	-7401
cola	-7402
gium	-7403
▁eco	-7404
▁ivy	-7405
▁sib	-7406
▁sui	-7407
beans	-7408
coste	-7409
ibles	-7410
iffed	-7411
kerly	-7412
ntils	-7413
▁dips	-7414
▁drab	-7415
▁sibl	-7416
▁suck	-7417
▁suff	-7418
▁taco	-7419
▁turb	-7420
▁wils	-7421
cially	-7422
innair	-7423
inness	-7424
insula	-7425
inuing	-7426
liders	-7427
market	-7428
minary	-7429
newlon	-7430
nscape	-7431
odates	-7432
ohette	-7433
ometer	-7434
ooping	-7435
orange	-7436
ourful	-7437
packed	-7438
pealed	-7439
player	-7440
pocaly	-7441
quiche	-7442
raging	-7443
resent	-7444
ridden	-7445
rusted	-7446
scaped	-7447
semble	-7448
shirts	-7449
skates	-7450
suited	-7451
uctant	-7452
udging	-7453
ullers	-7454
umbria	-7455
urfers	-7456
urfing	-7457
urhood	-7458
usband	-7459
vanced	-7460
viewed	-7461
vously	-7462
wining	-7463
▁10:14	-7464
▁12:44	-7465
▁2009.	-7466
▁2:46.	-7467
▁50/50	-7468
▁8:25.	-7469
▁activ	-7470
▁akite	-7471
▁alamo	-7472
▁alask	-7473
▁alike	-7474
▁annoy	-7475
▁aqued	-7476
▁arriv	-7477
▁aspar	-7478
▁awood	-7479
▁bales	-7480
▁beany	-7481
▁bellb	-7482
▁bites	-7483
▁bould	-7484
▁buddy	-7485
▁bulbs	-7486
▁bundt	-7487
▁burns	-7488
▁caked	-7489
▁capac	-7490
▁capit	-7491
▁casts	-7492
▁chevy	-7493
▁chief	-7494
▁citiz	-7495
▁claus	-7496
▁corgi	-7497
▁coule	-7498
▁crime	-7499
sbs	-7500
cove	-7501
hore	-7502
imbs	-7503
more	-7504
▁pda	-7505
couch	-7506
hadow	-7507
phlet	-7508
rette	-7509
rolet	-7510
▁6:55	-7511
▁cube	-7512
▁earb	-7513
▁glor	-7514
▁nemo	-7515
▁pupp	-7516
hadows	-7517
herals	-7518
moting	-7519
quired	-7520
vrolet	-7521
▁chute	-7522
▁cubby	-7523
▁death	-7524
▁decal	-7525
▁defac	-7526
▁dials	-7527
▁disgu	-7528
▁ditch	-7529
▁dolly	-7530
▁drips	-7531
▁dropp	-7532
▁dumbb	-7533
▁dummy	-7534
▁elbow	-7535
▁emits	-7536
▁escal	-7537
▁esche	-7538
▁estab	-7539
▁explo	-7540
▁feeds	-7541
▁ferns	-7542
▁filed	-7543
▁files	-7544
▁finch	-7545
▁foamy	-7546
▁gamer	-7547
▁gazel	-7548
▁gazes	-7549
▁glide	-7550
▁glory	-7551
▁goofy	-7552
▁grano	-7553
▁grima	-7554
▁grips	-7555
▁grits	-7556
▁grows	-7557
▁guilt	-7558
▁halve	-7559
▁helem	-7560
▁hippo	-7561
▁hoody	-7562
▁hoped	-7563
▁howda	-7564
▁hunky	-7565
▁hurls	-7566
▁hurry	-7567
▁hygen	-7568
▁icons	-7569
▁illus	-7570
▁impro	-7571
▁infam	-7572
▁joust	-7573
▁joyed	-7574
▁kauai	-7575
▁kreme	-7576
▁label	-7577
▁ladle	-7578
▁leaps	-7579
▁learn	-7580
▁leggo	-7581
▁lifes	-7582
▁looms	-7583
▁mason	-7584
▁maybe	-7585
▁mcfly	-7586
▁media	-7587
▁medie	-7588
▁misch	-7589
▁missh	-7590
▁misty	-7591
▁modes	-7592
▁mulch	-7593
▁mulit	-7594
▁mummy	-7595
▁nails	-7596
▁namet	-7597
▁nanoe	-7598
▁neath	-7599
▁18	-7600
▁24	-7601
erns	-7602
ppuc	-7603
umns	-7604
▁fav	-7605
▁joy	-7606
alike	-7607
atins	-7608
ecked	-7609
monds	-7610
onely	-7611
oprop	-7612
posed	-7613
unchu	-7614
▁bays	-7615
▁duct	-7616
▁educ	-7617
▁fail	-7618
▁joes	-7619
▁safe	-7620
▁seaf	-7621
decked	-7622
ensely	-7623
ftwood	-7624
itions	-7625
posing	-7626
unchuk	-7627
▁daily	-7628
▁error	-7629
▁faith	-7630
▁favor	-7631
▁imper	-7632
▁india	-7633
▁joins	-7634
▁munch	-7635
▁nonch	-7636
▁north	-7637
▁nurse	-7638
▁occas	-7639
▁ohone	-7640
▁ollie	-7641
▁opera	-7642
▁ordin	-7643
▁peson	-7644
▁props	-7645
▁pumps	-7646
▁punch	-7647
▁relig	-7648
▁roofs	-7649
▁sadly	-7650
▁saint	-7651
▁satis	-7652
▁scrat	-7653
▁shawl	-7654
▁shift	-7655
▁silly	-7656
▁simul	-7657
▁slows	-7658
▁stays	-7659
▁stern	-7660
▁stews	-7661
▁stony	-7662
▁suiit	-7663
▁swift	-7664
▁tacks	-7665
▁tails	-7666
▁tarts	-7667
▁taste	-7668
▁tilts	-7669
▁timet	-7670
▁toned	-7671
▁tones	-7672
▁total	-7673
▁truss	-7674
▁tulip	-7675
▁twigs	-7676
▁twins	-7677
▁unfol	-7678
▁unpee	-7679
▁until	-7680
▁wants	-7681
▁warns	-7682
▁width	-7683
▁wooly	-7684
▁wrink	-7685
▁wrong	-7686
amphlet	-7687
anterns	-7688
arthogs	-7689
atening	-7690
burners	-7691
cabbage	-7692
ception	-7693
cession	-7694
ckshaws	-7695
dicular	-7696
eathers	-7697
ecuting	-7698
english	-7699
sia	-7700
bbey	-7701
eria	-7702
pron	-7703
toms	-7704
about	-7705
bbles	-7706
cream	-7707
crest	-7708
fteen	-7709
riend	-7710
▁8:29	-7711
▁burs	-7712
▁hurt	-7713
▁tiar	-7714
dipped	-7715
friend	-7716
irtual	-7717
luding	-7718
ophone	-7719
ottoms	-7720
uchsia	-7721
▁abbey	-7722
▁adams	-7723
▁armor	-7724
▁award	-7725
▁burly	-7726
▁crush	-7727
▁digit	-7728
▁footp	-7729
▁goldf	-7730
▁momma	-7731
▁mower	-7732
▁rapid	-7733
▁ticks	-7734
▁tiers	-7735
▁tolet	-7736
▁utter	-7737
entials	-7738
erchief	-7739
fevwsen	-7740
fridges	-7741
ganized	-7742
gliders	-7743
ibbling	-7744
ificial	-7745
ilities	-7746
keshore	-7747
lapping	-7748
laturns	-7749
leasing	-7750
legging	-7751
liament	-7752
locking	-7753
nations	-7754
othello	-7755
pecting	-7756
planade	-7757
ppucino	-7758
pronged	-7759
quality	-7760
rapping	-7761
reshing	-7762
riction	-7763
riental	-7764
romatic	-7765
sailers	-7766
stocked	-7767
surfers	-7768
tanding	-7769
testing	-7770
trailer	-7771
ttenham	-7772
usettes	-7773
veining	-7774
versity	-7775
▁"500".	-7776
▁11.01.	-7777
▁23:58.	-7778
▁accent	-7779
▁accept	-7780
▁achild	-7781
▁active	-7782
▁actors	-7783
▁actual	-7784
▁adjust	-7785
▁aiming	-7786
▁aisles	-7787
▁alaska	-7788
▁alcove	-7789
▁americ	-7790
▁analog	-7791
▁anyone	-7792
▁argyle	-7793
▁autumn	-7794
▁barely	-7795
▁basics	-7796
▁basins	-7797
▁beaten	-7798
▁beater	-7799
imo	-7800
mod	-7801
ampy	-7802
goes	-7803
limo	-7804
▁500	-7805
▁kay	-7806
▁vio	-7807
actly	-7808
broad	-7809
roded	-7810
rowth	-7811
runes	-7812
▁hamm	-7813
▁nman	-7814
▁oman	-7815
▁prow	-7816
▁quad	-7817
▁rome	-7818
▁silk	-7819
berman	-7820
bience	-7821
icured	-7822
ooming	-7823
stered	-7824
▁artic	-7825
▁comfy	-7826
▁creme	-7827
▁ended	-7828
▁hides	-7829
▁kayak	-7830
▁packs	-7831
▁polos	-7832
▁prist	-7833
▁quant	-7834
▁quest	-7835
▁smack	-7836
cabinet	-7837
entucky	-7838
feeding	-7839
ighters	-7840
▁batman	-7841
▁bedded	-7842
▁blooms	-7843
▁blowup	-7844
▁bluing	-7845
▁bonnet	-7846
▁bowtie	-7847
▁brands	-7848
▁breezy	-7849
▁bricks	-7850
▁bridal	-7851
▁buckle	-7852
▁bureau	-7853
▁camden	-7854
▁canned	-7855
▁charge	-7856
▁choose	-7857
▁chucky	-7858
▁cities	-7859
▁cliffs	-7860
▁cloaks	-7861
▁clowns	-7862
▁coarse	-7863
▁cocked	-7864
▁collie	-7865
▁column	-7866
▁combin	-7867
▁cooper	-7868
▁copier	-7869
▁corded	-7870
▁corned	-7871
▁crawls	-7872
▁creeps	-7873
▁crypts	-7874
▁cucumb	-7875
▁cuting	-7876
▁cylind	-7877
▁debark	-7878
▁debris	-7879
▁depict	-7880
▁detect	-7881
▁devise	-7882
▁devour	-7883
▁diagra	-7884
▁dicked	-7885
▁disapp	-7886
▁doctor	-7887
▁dotted	-7888
▁droopy	-7889
▁drople	-7890
▁earbud	-7891
▁easier	-7892
▁easily	-7893
▁eclair	-7894
▁ecohop	-7895
▁edited	-7896
▁elders	-7897
▁embell	-7898
▁expect	-7899
51	-7900
-51	-7901
cth	-7902
raf	-7903
ugu	-7904
uls	-7905
▁ft	-7906
▁oj	-7907
auls	-7908
chey	-7909
fill	-7910
iate	-7911
nond	-7912
seur	-7913
▁ank	-7914
▁ast	-7915
▁raf	-7916
▁raz	-7917
▁taw	-7918
▁wak	-7919
abbed	-7920
acled	-7921
atory	-7922
blown	-7923
ciled	-7924
hroom	-7925
leigh	-7926
opers	-7927
rafes	-7928
sdale	-7929
uchey	-7930
uming	-7931
▁bann	-7932
▁citi	-7933
▁craf	-7934
▁diam	-7935
▁fiel	-7936
▁firm	-7937
▁hotd	-7938
▁lugu	-7939
▁moms	-7940
▁nach	-7941
▁nint	-7942
▁pike	-7943
▁thir	-7944
▁unad	-7945
▁walz	-7946
handle	-7947
otiate	-7948
verage	-7949
▁ankle	-7950
▁bused	-7951
▁caric	-7952
▁ninth	-7953
▁razor	-7954
▁roams	-7955
▁tawny	-7956
▁thigh	-7957
▁tress	-7958
▁wakeb	-7959
▁walzl	-7960
enciled	-7961
gotiate	-7962
mometer	-7963
nondale	-7964
▁astoun	-7965
▁attest	-7966
▁bannan	-7967
▁banned	-7968
▁barren	-7969
▁blackb	-7970
▁downst	-7971
▁expend	-7972
▁explan	-7973
▁extrav	-7974
▁fajita	-7975
▁falcon	-7976
▁fasten	-7977
▁filter	-7978
▁firmly	-7979
▁flashy	-7980
▁flyers	-7981
▁footst	-7982
▁frames	-7983
▁freely	-7984
▁fribee	-7985
▁frizbe	-7986
▁gaggle	-7987
▁gallop	-7988
▁gazebo	-7989
▁geared	-7990
▁ginger	-7991
▁girder	-7992
▁glance	-7993
▁glares	-7994
▁glases	-7995
▁glossy	-7996
▁grills	-7997
▁harves	-7998
▁hazard	-7999
05	-8000
:05	-8001
icu	-8002
rer	-8003
atee	-8004
ayer	-8005
boys	-8006
lace	-8007
ques	-8008
vern	-8009
▁ata	-8010
▁fum	-8011
▁sam	-8012
▁upc	-8013
ables	-8014
derly	-8015
iculo	-8016
illin	-8017
olate	-8018
plate	-8019
ttoos	-8020
unger	-8021
▁axle	-8022
▁chun	-8023
▁haze	-8024
▁neve	-8025
▁pins	-8026
▁smas	-8027
▁tint	-8028
aleria	-8029
anders	-8030
cessit	-8031
ritory	-8032
▁11:05	-8033
▁badge	-8034
▁bathe	-8035
▁final	-8036
▁frost	-8037
▁fumes	-8038
▁never	-8039
▁seren	-8040
▁splay	-8041
▁thath	-8042
▁topic	-8043
▁upclo	-8044
bacchan	-8045
iculous	-8046
▁battle	-8047
▁beacon	-8048
▁cather	-8049
▁cavern	-8050
▁chunks	-8051
▁hearth	-8052
▁hearty	-8053
▁helemt	-8054
▁hikers	-8055
▁hooded	-8056
▁hoofed	-8057
▁hotdgs	-8058
▁humane	-8059
▁hungry	-8060
▁ignore	-8061
▁inspir	-8062
▁instit	-8063
▁intern	-8064
▁irises	-8065
▁irking	-8066
▁issues	-8067
▁jammed	-8068
▁kichen	-8069
▁killin	-8070
▁ladels	-8071
▁ladles	-8072
▁layout	-8073
▁lidded	-8074
▁linked	-8075
▁liquif	-8076
▁listed	-8077
▁logged	-8078
▁looing	-8079
▁lovely	-8080
▁lunche	-8081
▁mascot	-8082
▁measly	-8083
▁merged	-8084
▁minney	-8085
▁mirage	-8086
▁missed	-8087
▁missha	-8088
▁mutton	-8089
▁native	-8090
▁nealed	-8091
▁netted	-8092
▁noodle	-8093
▁norway	-8094
▁option	-8095
▁origin	-8096
▁overfl	-8097
▁packet	-8098
▁pagoda	-8099
igt	-8100
wer	-8101
xty	-8102
arat	-8103
cles	-8104
ewer	-8105
good	-8106
illi	-8107
lery	-8108
lide	-8109
mile	-8110
mptu	-8111
noon	-8112
▁aff	-8113
▁boa	-8114
▁bog	-8115
▁bos	-8116
▁bov	-8117
▁feb	-8118
▁roj	-8119
▁roy	-8120
▁via	-8121
▁web	-8122
abled	-8123
boats	-8124
flage	-8125
goody	-8126
smile	-8127
under	-8128
urant	-8129
▁beam	-8130
▁cong	-8131
▁dach	-8132
▁earr	-8133
▁ligt	-8134
▁nite	-8135
▁pats	-8136
▁plad	-8137
▁roja	-8138
▁role	-8139
▁song	-8140
▁soon	-8141
▁thre	-8142
▁tund	-8143
▁vant	-8144
aratus	-8145
athing	-8146
remote	-8147
uflage	-8148
▁affix	-8149
▁bosom	-8150
▁cecil	-8151
▁conga	-8152
▁creek	-8153
▁groff	-8154
▁hashb	-8155
▁ither	-8156
▁lapse	-8157
▁mylar	-8158
▁picin	-8159
▁ripen	-8160
▁royal	-8161
▁sixty	-8162
▁stood	-8163
▁venus	-8164
bathing	-8165
outward	-8166
▁bovine	-8167
▁camode	-8168
▁chilli	-8169
▁dachsh	-8170
▁expert	-8171
▁length	-8172
▁nachos	-8173
▁pajama	-8174
▁palide	-8175
▁panned	-8176
▁pantry	-8177
▁parket	-8178
▁peaked	-8179
▁pebble	-8180
▁pedals	-8181
▁peeing	-8182
▁peeson	-8183
▁penned	-8184
▁plowig	-8185
▁poured	-8186
▁primit	-8187
▁prison	-8188
▁probes	-8189
▁procla	-8190
▁profan	-8191
▁prunes	-8192
▁quaint	-8193
▁rafter	-8194
▁rapper	-8195
▁reacts	-8196
▁relief	-8197
▁restar	-8198
▁rhinos	-8199
ky	-8200
ear	-8201
gom	-8202
hly	-8203
ona	-8204
owa	-8205
▁25	-8206
▁ec	-8207
▁ky	-8208
falf	-8209
ilus	-8210
lymp	-8211
oood	-8212
zona	-8213
▁103	-8214
▁jal	-8215
▁pea	-8216
▁rea	-8217
alant	-8218
chard	-8219
falfa	-8220
ggies	-8221
hance	-8222
igher	-8223
inine	-8224
orned	-8225
roads	-8226
teens	-8227
tling	-8228
urves	-8229
valan	-8230
▁chil	-8231
▁coed	-8232
▁ecst	-8233
▁iowa	-8234
▁king	-8235
▁reah	-8236
▁rumb	-8237
▁vety	-8238
ashing	-8239
inders	-8240
lympic	-8241
opping	-8242
rizona	-8243
urking	-8244
utilus	-8245
vishly	-8246
▁bight	-8247
▁flaky	-8248
▁foood	-8249
▁holid	-8250
▁pleas	-8251
▁regul	-8252
▁shack	-8253
▁taxis	-8254
▁templ	-8255
▁wegom	-8256
alantly	-8257
ificant	-8258
lympics	-8259
oeurves	-8260
rescent	-8261
shirted	-8262
▁avalan	-8263
▁childs	-8264
▁floppy	-8265
▁hadron	-8266
▁higher	-8267
▁lushly	-8268
▁ridged	-8269
▁rinsed	-8270
▁rounds	-8271
▁safari	-8272
▁sandel	-8273
▁satisf	-8274
▁satute	-8275
▁scared	-8276
▁screwd	-8277
▁secure	-8278
▁selves	-8279
▁sexual	-8280
▁shakes	-8281
▁sherds	-8282
▁shield	-8283
▁shoots	-8284
▁sicker	-8285
▁sittig	-8286
▁sittin	-8287
▁skirts	-8288
▁sleigh	-8289
▁slider	-8290
▁slushy	-8291
▁smoggy	-8292
▁snapsh	-8293
▁snooze	-8294
▁snugly	-8295
▁soiled	-8296
▁solemn	-8297
▁southw	-8298
▁spaces	-8299
fic	-8300
lew	-8301
put	-8302
ury	-8303
▁rd	-8304
back	-8305
geon	-8306
gers	-8307
ikes	-8308
uant	-8309
uted	-8310
xury	-8311
▁cay	-8312
▁gut	-8313
▁mur	-8314
▁veg	-8315
▁why	-8316
amber	-8317
eered	-8318
omput	-8319
riers	-8320
uxury	-8321
▁days	-8322
▁hide	-8323
▁sard	-8324
▁scow	-8325
▁tali	-8326
▁vegt	-8327
▁wast	-8328
▁witb	-8329
comput	-8330
ficial	-8331
geonly	-8332
▁grins	-8333
▁hardh	-8334
▁nooks	-8335
▁panes	-8336
▁paste	-8337
▁pople	-8338
▁treed	-8339
▁ballew	-8340
▁durham	-8341
▁flavor	-8342
▁fluted	-8343
▁gutted	-8344
▁harvey	-8345
▁inches	-8346
▁khakis	-8347
▁lacing	-8348
▁luxury	-8349
▁murder	-8350
▁panels	-8351
▁slacks	-8352
▁spears	-8353
▁spider	-8354
▁spikes	-8355
▁spirit	-8356
▁splays	-8357
▁squeez	-8358
▁stairw	-8359
▁stephe	-8360
▁steple	-8361
▁stiing	-8362
▁stradd	-8363
▁streen	-8364
▁strips	-8365
▁summit	-8366
▁surbur	-8367
▁survey	-8368
▁talkie	-8369
▁tangle	-8370
▁tapest	-8371
▁tasble	-8372
▁tender	-8373
▁tiaras	-8374
▁tights	-8375
▁tonged	-8376
▁topper	-8377
▁transf	-8378
▁tundra	-8379
▁udders	-8380
▁unload	-8381
▁utters	-8382
▁vacant	-8383
▁valves	-8384
▁variet	-8385
▁venice	-8386
▁vespas	-8387
▁violen	-8388
▁visits	-8389
▁visors	-8390
▁walked	-8391
▁wander	-8392
▁warmer	-8393
▁washes	-8394
▁whiten	-8395
▁wilson	-8396
▁wiring	-8397
▁woolly	-8398
▁yamaha	-8399
chu	-8400
ebe	-8401
foo	-8402
hot	-8403
xil	-8404
aroo	-8405
elic	-8406
lick	-8407
otes	-8408
pair	-8409
reel	-8410
▁ram	-8411
▁ros	-8412
ences	-8413
eters	-8414
hotel	-8415
idden	-8416
▁mine	-8417
▁mous	-8418
▁reel	-8419
▁rosy	-8420
▁tenn	-8421
chucks	-8422
footed	-8423
lation	-8424
mingly	-8425
repair	-8426
teries	-8427
▁crepe	-8428
▁discs	-8429
▁frown	-8430
▁heats	-8431
▁means	-8432
▁outis	-8433
▁pelic	-8434
▁pixil	-8435
▁rears	-8436
▁rents	-8437
▁widow	-8438
angaroo	-8439
licking	-8440
renched	-8441
▁ahotel	-8442
▁amused	-8443
▁captiv	-8444
▁dental	-8445
▁hidden	-8446
▁mouses	-8447
▁novels	-8448
▁proxim	-8449
▁scraps	-8450
▁skewer	-8451
▁stolen	-8452
▁yields	-8453
▁youths	-8454
american	-8455
ariously	-8456
atiently	-8457
bourhood	-8458
ccartney	-8459
ceedings	-8460
children	-8461
computer	-8462
ctagonal	-8463
elieving	-8464
enacting	-8465
enapples	-8466
eratator	-8467
erscotch	-8468
feathers	-8469
fighters	-8470
gressive	-8471
ipherals	-8472
ipulated	-8473
irecting	-8474
istening	-8475
iversity	-8476
junction	-8477
keyboard	-8478
lanterns	-8479
lerating	-8480
lishment	-8481
nouncing	-8482
olstered	-8483
operated	-8484
panelled	-8485
rmometer	-8486
seminary	-8487
speakers	-8488
stations	-8489
uckering	-8490
udgeonly	-8491
uisville	-8492
urbished	-8493
veloping	-8494
venience	-8495
watching	-8496
wrapping	-8497
▁account	-8498
▁actress	-8499
41	-8500
xe	-8501
#41	-8502
asp	-8503
igs	-8504
nas	-8505
reo	-8506
sas	-8507
tas	-8508
▁5'	-8509
▁ct	-8510
bord	-8511
etan	-8512
illa	-8513
inut	-8514
isan	-8515
olli	-8516
task	-8517
▁#41	-8518
▁job	-8519
▁ner	-8520
▁usa	-8521
▁yet	-8522
betan	-8523
inked	-8524
oting	-8525
stick	-8526
▁bout	-8527
▁clog	-8528
▁coxe	-8529
▁hart	-8530
▁hate	-8531
▁limo	-8532
▁mate	-8533
▁outn	-8534
▁ping	-8535
▁spen	-8536
▁tone	-8537
aspoon	-8538
nasium	-8539
shower	-8540
▁based	-8541
▁cigar	-8542
▁doesn	-8543
▁nerdy	-8544
▁parkd	-8545
▁plare	-8546
▁solid	-8547
▁squir	-8548
▁thigs	-8549
inutive	-8550
▁chewed	-8551
▁drapes	-8552
▁scones	-8553
▁stereo	-8554
▁address	-8555
▁affixed	-8556
▁airways	-8557
▁alfalfa	-8558
▁almonds	-8559
▁america	-8560
▁amtrack	-8561
▁apocaly	-8562
▁applied	-8563
▁arizona	-8564
▁artisan	-8565
▁asymmet	-8566
▁attacks	-8567
▁average	-8568
▁awkward	-8569
▁backing	-8570
▁backlit	-8571
▁barking	-8572
▁batters	-8573
▁beaches	-8574
▁begging	-8575
▁belgium	-8576
▁bespect	-8577
▁bestbuy	-8578
▁bifocal	-8579
▁binders	-8580
▁bondage	-8581
▁boombox	-8582
▁boundar	-8583
▁boutton	-8584
▁braided	-8585
▁breatht	-8586
▁bruises	-8587
▁bulding	-8588
▁bunkbed	-8589
▁busting	-8590
▁bystand	-8591
▁capitol	-8592
▁captive	-8593
▁casting	-8594
▁chamber	-8595
▁charter	-8596
▁chipped	-8597
▁choices	-8598
▁chromed	-8599
",	-8600
.]	-8601
02	-8602
?"	-8603
kn	-8604
▁(	-8605
023	-8606
abb	-8607
arg	-8608
dog	-8609
jar	-8610
lan	-8611
ram	-8612
rek	-8613
tat	-8614
▁ai	-8615
▁od	-8616
aken	-8617
harg	-8618
ivil	-8619
knit	-8620
nuts	-8621
orge	-8622
phan	-8623
pond	-8624
tata	-8625
utto	-8626
vens	-8627
yram	-8628
▁023	-8629
▁bob	-8630
▁emo	-8631
▁uph	-8632
abbey	-8633
ccoon	-8634
erang	-8635
iutto	-8636
laned	-8637
oured	-8638
taken	-8639
▁ajar	-8640
▁babs	-8641
▁hers	-8642
▁odds	-8643
▁ripp	-8644
▁sank	-8645
▁tren	-8646
hement	-8647
ittata	-8648
yramid	-8649
▁civil	-8650
▁coupe	-8651
▁derek	-8652
▁downs	-8653
▁gorge	-8654
▁juven	-8655
▁kiwis	-8656
▁pover	-8657
▁stamp	-8658
▁study	-8659
inement	-8660
knitted	-8661
sciutto	-8662
▁calmly	-8663
▁dodges	-8664
▁estate	-8665
▁flagpo	-8666
▁radish	-8667
▁sorted	-8668
▁townsh	-8669
▁trendy	-8670
hemently	-8671
▁abreast	-8672
▁circles	-8673
▁cleared	-8674
▁clinked	-8675
▁clipped	-8676
▁clogged	-8677
▁coaster	-8678
▁coiffed	-8679
▁collies	-8680
▁columns	-8681
▁combine	-8682
▁compete	-8683
▁consult	-8684
▁crammed	-8685
▁crawled	-8686
▁creates	-8687
▁crushed	-8688
▁cuddled	-8689
▁curving	-8690
▁dealing	-8691
▁delight	-8692
▁demonic	-8693
▁deplane	-8694
▁deserts	-8695
▁devours	-8696
▁diamond	-8697
▁dinette	-8698
▁directs	-8699
ele	-8700
oid	-8701
xie	-8702
atra	-8703
itme	-8704
omen	-8705
▁tab	-8706
andly	-8707
chell	-8708
edian	-8709
elect	-8710
orted	-8711
river	-8712
women	-8713
▁flys	-8714
▁hook	-8715
▁penn	-8716
▁sham	-8717
▁tart	-8718
inting	-8719
opatra	-8720
themed	-8721
uction	-8722
▁blurs	-8723
▁brind	-8724
▁dixie	-8725
▁elder	-8726
▁junky	-8727
▁overh	-8728
▁smily	-8729
▁swirl	-8730
▁tabke	-8731
▁vegas	-8732
▁worth	-8733
▁avidly	-8734
▁busted	-8735
▁crowds	-8736
▁diaper	-8737
▁fourth	-8738
▁progra	-8739
▁rolled	-8740
▁shamro	-8741
▁tartan	-8742
electric	-8743
▁auction	-8744
▁blandly	-8745
▁brindle	-8746
▁crochet	-8747
▁cursing	-8748
▁divided	-8749
▁divider	-8750
▁douchey	-8751
▁drysuit	-8752
▁dusting	-8753
▁dwarfed	-8754
▁eagerly	-8755
▁ealking	-8756
▁earring	-8757
▁eastern	-8758
▁eclaire	-8759
▁elephan	-8760
▁encased	-8761
▁enhance	-8762
▁enjoyed	-8763
▁erected	-8764
▁ergonom	-8765
▁exactly	-8766
▁example	-8767
▁exposit	-8768
▁facades	-8769
▁fathers	-8770
▁ferrari	-8771
▁festive	-8772
▁fifteen	-8773
▁finnair	-8774
▁flavors	-8775
▁flights	-8776
▁floored	-8777
▁formica	-8778
▁framing	-8779
▁frizzbe	-8780
▁fronted	-8781
▁fuchsia	-8782
▁gaining	-8783
▁galeria	-8784
▁gesture	-8785
▁glassed	-8786
▁glimpse	-8787
▁goodies	-8788
▁grabing	-8789
▁groomed	-8790
▁guiness	-8791
▁hadrian	-8792
▁hammert	-8793
▁handbag	-8794
▁handleb	-8795
▁harvest	-8796
▁headset	-8797
▁heavens	-8798
▁heights	-8799
--	-8800
gh	-8801
ht	-8802
ox	-8803
pm	-8804
tu	-8805
did	-8806
hit	-8807
ont	-8808
ros	-8809
tui	-8810
▁ye	-8811
gros	-8812
oneb	-8813
▁nom	-8814
▁phe	-8815
▁wla	-8816
▁yak	-8817
bilia	-8818
izers	-8819
lenox	-8820
peace	-8821
tenna	-8822
train	-8823
ugger	-8824
using	-8825
▁crab	-8826
▁eart	-8827
▁flan	-8828
▁font	-8829
▁gogh	-8830
▁hree	-8831
▁kert	-8832
▁mout	-8833
▁seve	-8834
▁slat	-8835
▁taht	-8836
▁tast	-8837
▁trow	-8838
acksaw	-8839
isgros	-8840
lendid	-8841
licate	-8842
tennae	-8843
uhette	-8844
▁earth	-8845
▁haird	-8846
▁nomad	-8847
▁papay	-8848
▁peeld	-8849
▁pheas	-8850
▁wlaks	-8851
▁years	-8852
enities	-8853
etizers	-8854
mptress	-8855
▁adding	-8856
▁empire	-8857
▁oceans	-8858
▁papaya	-8859
▁phoneb	-8860
▁severe	-8861
▁streer	-8862
▁tosses	-8863
icipates	-8864
ievously	-8865
louhette	-8866
uplicate	-8867
▁arching	-8868
▁borders	-8869
▁carried	-8870
▁causing	-8871
▁comment	-8872
▁dormers	-8873
▁hacksaw	-8874
▁hairdry	-8875
▁hideous	-8876
▁holiday	-8877
▁honored	-8878
▁hopping	-8879
▁horizon	-8880
▁humming	-8881
▁husband	-8882
▁hydrand	-8883
▁hydrgen	-8884
▁hydrgon	-8885
▁hyrdant	-8886
▁icicles	-8887
▁jouster	-8888
▁jukebox	-8889
▁keeping	-8890
▁kerttui	-8891
▁keybord	-8892
▁knocked	-8893
▁labcoat	-8894
▁lacoste	-8895
▁lantern	-8896
▁lapping	-8897
▁lentils	-8898
▁letharg	-8899
ek	-8900
nse	-8901
wth	-8902
▁dv	-8903
▁gn	-8904
▁pf	-8905
bart	-8906
edan	-8907
here	-8908
izab	-8909
lesc	-8910
stop	-8911
▁hey	-8912
▁hir	-8913
▁ove	-8914
▁toe	-8915
▁wre	-8916
atter	-8917
imate	-8918
layer	-8919
motor	-8920
nants	-8921
ution	-8922
▁bnse	-8923
▁cash	-8924
▁dvds	-8925
▁fits	-8926
▁gnar	-8927
▁iwth	-8928
▁live	-8929
▁mann	-8930
▁melt	-8931
▁ovee	-8932
▁raid	-8933
▁whol	-8934
skiing	-8935
▁camel	-8936
▁cheek	-8937
▁cheer	-8938
▁humid	-8939
▁papia	-8940
▁ridge	-8941
▁sedan	-8942
▁takea	-8943
izabeth	-8944
lescope	-8945
phantly	-8946
umbered	-8947
▁burned	-8948
▁humong	-8949
▁mannhe	-8950
▁shared	-8951
▁shelve	-8952
▁sphere	-8953
▁velvet	-8954
▁viewer	-8955
▁wholly	-8956
▁womman	-8957
ultimate	-8958
▁dishing	-8959
▁ferries	-8960
▁learned	-8961
▁listens	-8962
▁locking	-8963
▁lookign	-8964
▁luguage	-8965
▁lumbers	-8966
▁lurking	-8967
▁macbook	-8968
▁manuals	-8969
▁massach	-8970
▁masters	-8971
▁maximum	-8972
▁mention	-8973
▁mittens	-8974
▁modific	-8975
▁monkeys	-8976
▁mosques	-8977
▁mothers	-8978
▁muscles	-8979
▁musical	-8980
▁nametag	-8981
▁necktie	-8982
▁needles	-8983
▁nestled	-8984
▁network	-8985
▁neutral	-8986
▁neveren	-8987
▁nomadic	-8988
▁notices	-8989
▁nunchuk	-8990
▁obelisk	-8991
▁observe	-8992
▁operate	-8993
▁orbital	-8994
▁orchard	-8995
▁othello	-8996
▁outisde	-8997
▁outlets	-8998
▁outward	-8999
60	-9000
sr	-9001
vs	-9002
-25	-9003
:54	-9004
ero	-9005
oro	-9006
ups	-9007
wed	-9008
zza	-9009
acly	-9010
izer	-9011
ptic	-9012
▁aer	-9013
▁cel	-9014
▁elk	-9015
▁ess	-9016
▁inn	-9017
▁our	-9018
▁pip	-9019
▁spo	-9020
▁tet	-9021
andom	-9022
ellor	-9023
iacly	-9024
lived	-9025
orous	-9026
vsion	-9027
▁1960	-9028
▁5:54	-9029
▁bing	-9030
▁dads	-9031
▁dork	-9032
▁imac	-9033
▁mean	-9034
▁pail	-9035
▁ussr	-9036
▁wort	-9037
▁zero	-9038
hiches	-9039
umpled	-9040
▁keeps	-9041
▁might	-9042
▁money	-9043
▁mozza	-9044
▁optic	-9045
▁ovens	-9046
▁pitas	-9047
▁stalk	-9048
itement	-9049
▁barbie	-9050
▁carton	-9051
▁daybed	-9052
▁glazes	-9053
▁huddle	-9054
▁looped	-9055
▁planed	-9056
▁random	-9057
▁seeing	-9058
▁singke	-9059
▁slings	-9060
▁spouts	-9061
▁tanker	-9062
▁allowed	-9063
▁descent	-9064
▁graying	-9065
▁hyrdons	-9066
▁ourange	-9067
▁paddled	-9068
▁palming	-9069
▁panties	-9070
▁papered	-9071
▁parkour	-9072
▁pastery	-9073
▁patrons	-9074
▁patters	-9075
▁pausing	-9076
▁payment	-9077
▁peacoat	-9078
▁pebbles	-9079
▁peddled	-9080
▁pensive	-9081
▁peoples	-9082
▁persona	-9083
▁picinic	-9084
▁pinning	-9085
▁pirates	-9086
▁pirched	-9087
▁planner	-9088
▁plaques	-9089
▁plateau	-9090
▁polenta	-9091
▁polents	-9092
▁pontoon	-9093
▁portray	-9094
▁possess	-9095
▁postbox	-9096
▁posting	-9097
▁pototes	-9098
▁potties	-9099
fty	-9100
ids	-9101
ims	-9102
non	-9103
pro	-9104
roy	-9105
tel	-9106
▁lr	-9107
▁my	-9108
mire	-9109
▁cud	-9110
▁ith	-9111
▁lan	-9112
▁slr	-9113
▁sut	-9114
▁tha	-9115
▁tog	-9116
▁yes	-9117
elers	-9118
ented	-9119
erget	-9120
essna	-9121
itors	-9122
ppids	-9123
▁chug	-9124
▁gest	-9125
▁lrge	-9126
▁mand	-9127
▁meta	-9128
▁myst	-9129
▁once	-9130
▁pall	-9131
▁toes	-9132
▁tubs	-9133
aining	-9134
istmas	-9135
trucks	-9136
▁arden	-9137
▁bison	-9138
▁chugs	-9139
▁cutin	-9140
▁feild	-9141
▁fiber	-9142
▁hawai	-9143
▁hefty	-9144
▁heron	-9145
▁roomw	-9146
▁sprig	-9147
▁stark	-9148
▁tatto	-9149
▁thump	-9150
▁usage	-9151
▁whims	-9152
▁withs	-9153
anitors	-9154
ergetic	-9155
ightful	-9156
▁11:44.	-9157
▁admire	-9158
▁airbag	-9159
▁alltel	-9160
▁cessna	-9161
▁dented	-9162
▁forced	-9163
▁lately	-9164
▁mandor	-9165
▁sprigs	-9166
▁sutter	-9167
▁tattos	-9168
▁taught	-9169
▁thumps	-9170
wheelers	-9171
▁cheesey	-9172
▁contend	-9173
▁destroy	-9174
▁dormant	-9175
▁liquify	-9176
▁mystery	-9177
▁poverty	-9178
▁preserv	-9179
▁private	-9180
▁profile	-9181
▁program	-9182
▁protein	-9183
▁puckers	-9184
▁pumping	-9185
▁puppies	-9186
▁puzzled	-9187
▁pyramid	-9188
▁quality	-9189
▁quietly	-9190
▁raccoon	-9191
▁railcar	-9192
▁rapidly	-9193
▁rappids	-9194
▁readers	-9195
▁receive	-9196
▁redhead	-9197
▁redwood	-9198
▁remains	-9199
edy	-9200
for	-9201
hop	-9202
ord	-9203
ots	-9204
ume	-9205
yon	-9206
▁tp	-9207
▁ya	-9208
airs	-9209
bert	-9210
clud	-9211
fall	-9212
ites	-9213
laid	-9214
ooky	-9215
pile	-9216
▁10.	-9217
▁gon	-9218
▁peg	-9219
▁rip	-9220
▁sco	-9221
akeet	-9222
▁dome	-9223
▁ront	-9224
▁yawn	-9225
cluded	-9226
forced	-9227
itable	-9228
oceros	-9229
▁10.14	-9230
▁awake	-9231
▁cockp	-9232
▁drier	-9233
▁fired	-9234
▁flour	-9235
▁glows	-9236
▁gondo	-9237
▁gross	-9238
▁pages	-9239
▁peice	-9240
▁scoop	-9241
▁swell	-9242
▁sword	-9243
▁teens	-9244
▁weedy	-9245
▁yawns	-9246
▁baxter	-9247
▁boiled	-9248
▁brushy	-9249
▁canyon	-9250
▁castes	-9251
▁climbs	-9252
▁distur	-9253
▁inlaid	-9254
▁spooky	-9255
▁tablet	-9256
▁trails	-9257
▁waking	-9258
▁bellhop	-9259
▁bunless	-9260
▁cockpit	-9261
▁colbert	-9262
▁cutlery	-9263
▁gardens	-9264
▁gondola	-9265
▁googley	-9266
▁ignites	-9267
▁knitted	-9268
▁outland	-9269
▁pencils	-9270
▁perfume	-9271
▁purpose	-9272
▁relaxed	-9273
▁removal	-9274
▁removed	-9275
▁rentals	-9276
▁respond	-9277
▁returns	-9278
▁reveals	-9279
▁rinsing	-9280
▁roaster	-9281
▁rubbish	-9282
▁rumbled	-9283
▁rumpled	-9284
▁russian	-9285
▁saddled	-9286
▁sanding	-9287
▁saucers	-9288
▁schemes	-9289
▁seafood	-9290
▁seminar	-9291
▁servers	-9292
▁shadowy	-9293
▁sharply	-9294
▁sheered	-9295
▁sheriff	-9296
▁shocked	-9297
▁shorter	-9298
▁shuffle	-9299
87	-9300
das	-9301
imy	-9302
▁aa	-9303
▁hp	-9304
▁nw	-9305
▁rv	-9306
cken	-9307
mess	-9308
mmed	-9309
open	-9310
pain	-9311
phic	-9312
uble	-9313
vane	-9314
wire	-9315
▁787	-9316
▁hla	-9317
▁ins	-9318
▁mim	-9319
▁wow	-9320
inder	-9321
messy	-9322
ssons	-9323
unter	-9324
▁bone	-9325
▁bred	-9326
▁eith	-9327
▁oina	-9328
▁pare	-9329
▁plot	-9330
▁redd	-9331
▁tilt	-9332
ademic	-9333
ansive	-9334
prints	-9335
rimmed	-9336
rupted	-9337
shaped	-9338
▁amish	-9339
▁bored	-9340
▁month	-9341
▁slimy	-9342
▁sodas	-9343
▁spraw	-9344
▁stink	-9345
▁toiet	-9346
itching	-9347
painted	-9348
reening	-9349
▁amazed	-9350
▁baskes	-9351
▁cables	-9352
▁freeze	-9353
▁heated	-9354
▁hlaves	-9355
▁insert	-9356
▁miming	-9357
▁misses	-9358
▁redone	-9359
▁rivers	-9360
▁roster	-9361
▁shinny	-9362
▁snowed	-9363
▁warmly	-9364
▁baskest	-9365
▁compass	-9366
▁granola	-9367
▁graphic	-9368
▁kitcken	-9369
▁lessons	-9370
▁pareils	-9371
▁reddish	-9372
▁seawall	-9373
▁shuttle	-9374
▁sidwalk	-9375
▁signing	-9376
▁sititng	-9377
▁sittign	-9378
▁sittion	-9379
▁skiesat	-9380
▁skinned	-9381
▁slatted	-9382
▁slowest	-9383
▁slugger	-9384
▁smashed	-9385
▁snowman	-9386
▁spandex	-9387
▁spanish	-9388
▁spokane	-9389
▁sprayed	-9390
▁squeeze	-9391
▁stabbed	-9392
▁staging	-9393
▁stances	-9394
▁stately	-9395
▁statute	-9396
▁steamed	-9397
▁steered	-9398
▁stephen	-9399
isy	-9400
nes	-9401
rub	-9402
cled	-9403
ctic	-9404
held	-9405
spot	-9406
▁jug	-9407
▁lip	-9408
arian	-9409
ister	-9410
ptive	-9411
rylic	-9412
▁bins	-9413
▁crus	-9414
▁doct	-9415
▁ecle	-9416
▁ford	-9417
▁herb	-9418
▁knot	-9419
▁lick	-9420
▁lose	-9421
▁plae	-9422
▁rich	-9423
▁tumb	-9424
ircled	-9425
mother	-9426
nesday	-9427
plants	-9428
▁apply	-9429
▁clues	-9430
▁compr	-9431
▁daisy	-9432
▁flute	-9433
▁force	-9434
▁herit	-9435
▁links	-9436
▁raise	-9437
▁roped	-9438
▁scrub	-9439
▁whats	-9440
▁worms	-9441
icating	-9442
ilboard	-9443
spotted	-9444
▁bigtop	-9445
▁clothe	-9446
▁compil	-9447
▁crusts	-9448
▁howdah	-9449
▁murals	-9450
▁peeler	-9451
▁pizzaa	-9452
▁spotty	-9453
▁triple	-9454
friendly	-9455
modating	-9456
▁acrylic	-9457
▁banding	-9458
▁batches	-9459
▁bedside	-9460
▁bulging	-9461
▁doctors	-9462
▁finding	-9463
▁peacock	-9464
▁pickled	-9465
▁pitches	-9466
▁plaster	-9467
▁stepper	-9468
▁streaks	-9469
▁streams	-9470
▁studios	-9471
▁sugared	-9472
▁supreme	-9473
▁swatter	-9474
▁swiftly	-9475
▁symbols	-9476
▁systems	-9477
▁tablets	-9478
▁takeoff	-9479
▁tanning	-9480
▁tapping	-9481
▁tasters	-9482
▁taxiing	-9483
▁teacups	-9484
▁teeters	-9485
▁temples	-9486
▁thicket	-9487
▁tibetan	-9488
▁tightro	-9489
▁tilting	-9490
▁tomatoe	-9491
▁totally	-9492
▁touches	-9493
▁tourbus	-9494
▁trainer	-9495
▁trapped	-9496
▁trouble	-9497
▁trowing	-9498
▁tucking	-9499
uv	-9500
dsm	-9501
hap	-9502
cage	-9503
ebie	-9504
endo	-9505
eper	-9506
haps	-9507
iere	-9508
irlp	-9509
oeuv	-9510
tles	-9511
▁ads	-9512
▁het	-9513
▁las	-9514
anned	-9515
ckled	-9516
poron	-9517
ppers	-9518
rians	-9519
▁bdsm	-9520
▁boxc	-9521
▁dine	-9522
▁gild	-9523
▁heel	-9524
▁prec	-9525
▁prey	-9526
▁vist	-9527
ampire	-9528
inging	-9529
ippers	-9530
istles	-9531
keeper	-9532
oeuvre	-9533
ousand	-9534
poroni	-9535
▁baths	-9536
▁brass	-9537
▁combo	-9538
▁coner	-9539
▁mossy	-9540
▁saver	-9541
▁shrub	-9542
▁tanks	-9543
▁tends	-9544
▁trium	-9545
▁vista	-9546
▁whale	-9547
ctioned	-9548
irlpool	-9549
▁barber	-9550
▁camers	-9551
▁gilded	-9552
▁lowers	-9553
▁models	-9554
▁rained	-9555
▁winged	-9556
alkeeper	-9557
▁boxcars	-9558
▁camersa	-9559
▁casings	-9560
▁combing	-9561
▁compute	-9562
▁freebie	-9563
▁gathers	-9564
▁lecture	-9565
▁linking	-9566
▁melting	-9567
▁ninendo	-9568
▁perhaps	-9569
▁prepped	-9570
▁scanned	-9571
▁tennise	-9572
▁tumbles	-9573
▁turkeys	-9574
▁tuxedos	-9575
▁twitter	-9576
▁unbaked	-9577
▁unconsc	-9578
▁uneaten	-9579
▁unfolds	-9580
▁unpaved	-9581
▁upclose	-9582
▁upwards	-9583
▁utterly	-9584
▁vacuums	-9585
▁vampire	-9586
▁vanilla	-9587
▁vantage	-9588
▁verizon	-9589
▁veteran	-9590
▁victory	-9591
▁vinegar	-9592
▁virtual	-9593
▁volcano	-9594
▁walnuts	-9595
▁weaterh	-9596
▁weaving	-9597
▁wildebe	-9598
▁winding	-9599
don	-9600
arks	-9601
bull	-9602
long	-9603
mout	-9604
pane	-9605
▁ewe	-9606
▁gap	-9607
▁hoe	-9608
▁iin	-9609
▁mph	-9610
▁sly	-9611
▁4:21	-9612
▁alot	-9613
▁garb	-9614
▁hams	-9615
▁jams	-9616
▁lace	-9617
▁lacy	-9618
▁loan	-9619
▁mule	-9620
▁slal	-9621
iliner	-9622
▁aisle	-9623
▁await	-9624
▁banks	-9625
▁basil	-9626
▁copse	-9627
▁crown	-9628
▁curse	-9629
▁loses	-9630
▁outer	-9631
▁potty	-9632
▁roast	-9633
▁sandp	-9634
▁sands	-9635
▁satur	-9636
▁shine	-9637
▁skied	-9638
▁sking	-9639
▁spack	-9640
▁twice	-9641
▁upgra	-9642
mouthed	-9643
venture	-9644
▁bowing	-9645
▁childi	-9646
▁closes	-9647
▁courch	-9648
▁oblong	-9649
▁record	-9650
▁shabby	-9651
▁sharks	-9652
▁steers	-9653
▁summer	-9654
▁walkie	-9655
broadway	-9656
▁adoring	-9657
▁boaters	-9658
▁boating	-9659
▁closest	-9660
▁couplee	-9661
▁crested	-9662
▁pitbull	-9663
▁plunger	-9664
▁rounded	-9665
▁sandpip	-9666
▁shirted	-9667
▁slaloms	-9668
▁winnies	-9669
▁winning	-9670
▁wipeout	-9671
▁wording	-9672
▁wrecked	-9673
▁zooming	-9674
-29-2011.	-9675
believing	-9676
cessities	-9677
chromatic	-9678
developed	-9679
identally	-9680
lications	-9681
mudgeonly	-9682
ompassing	-9683
▁abnormal	-9684
▁academic	-9685
▁actually	-9686
▁adjusted	-9687
▁adorning	-9688
▁advanced	-9689
▁airstrip	-9690
▁alleyway	-9691
▁ambience	-9692
▁americas	-9693
▁analogue	-9694
▁antennae	-9695
▁antilope	-9696
▁anywhere	-9697
▁approved	-9698
▁aqueduct	-9699
era	-9700
apor	-9701
clad	-9702
wash	-9703
▁mob	-9704
brick	-9705
ooses	-9706
reses	-9707
▁boxy	-9708
▁dear	-9709
▁dial	-9710
▁lion	-9711
▁moss	-9712
▁rubs	-9713
▁rung	-9714
▁seal	-9715
▁slid	-9716
▁soar	-9717
▁soig	-9718
▁soil	-9719
▁solo	-9720
▁teat	-9721
▁vein	-9722
eating	-9723
ryside	-9724
▁attic	-9725
▁curls	-9726
▁dusky	-9727
▁fires	-9728
▁float	-9729
▁found	-9730
▁grade	-9731
▁loose	-9732
▁noses	-9733
▁offlo	-9734
▁queen	-9735
▁roles	-9736
▁showy	-9737
▁soigo	-9738
▁sound	-9739
▁vapor	-9740
▁veers	-9741
▁wales	-9742
▁whose	-9743
anating	-9744
playing	-9745
▁billed	-9746
▁busuit	-9747
▁casing	-9748
▁courts	-9749
▁frisby	-9750
▁offers	-9751
▁prying	-9752
▁pylons	-9753
▁supine	-9754
▁thirds	-9755
▁bowling	-9756
▁builder	-9757
▁cracked	-9758
▁doubled	-9759
▁horeses	-9760
▁lightly	-9761
▁pinkish	-9762
▁presses	-9763
▁tearing	-9764
▁unloads	-9765
▁archways	-9766
▁arranges	-9767
▁arrivals	-9768
▁artfully	-9769
▁aspiring	-9770
▁assuming	-9771
▁attended	-9772
▁baaeball	-9773
▁backflip	-9774
▁badminto	-9775
▁bakeware	-9776
▁balanced	-9777
▁banansas	-9778
▁bannanas	-9779
▁barnacle	-9780
▁barrette	-9781
▁barriers	-9782
▁battling	-9783
▁bedecked	-9784
▁bedstand	-9785
▁beginner	-9786
▁bethroom	-9787
▁bildings	-9788
▁biltmore	-9789
▁bleacher	-9790
▁bleeding	-9791
▁blenders	-9792
▁blending	-9793
▁blinking	-9794
▁blockade	-9795
▁blooming	-9796
▁bluebery	-9797
▁booklets	-9798
▁boulders	-9799
dex	-9800
eye	-9801
agie	-9802
agus	-9803
apel	-9804
ario	-9805
arts	-9806
indo	-9807
jump	-9808
next	-9809
tang	-9810
ules	-9811
unts	-9812
▁bib	-9813
▁urn	-9814
adies	-9815
agant	-9816
asted	-9817
court	-9818
ffess	-9819
▁4:30	-9820
▁agit	-9821
▁airy	-9822
▁apps	-9823
▁broc	-9824
▁drip	-9825
▁hale	-9826
▁huts	-9827
▁leiz	-9828
▁lets	-9829
▁news	-9830
▁rink	-9831
▁tedy	-9832
▁thte	-9833
onders	-9834
▁amber	-9835
▁feral	-9836
▁folli	-9837
▁grate	-9838
▁hooks	-9839
▁index	-9840
▁likes	-9841
▁mario	-9842
▁medal	-9843
▁mules	-9844
▁punts	-9845
▁refig	-9846
▁soars	-9847
▁stoop	-9848
▁subst	-9849
▁wiith	-9850
▁wired	-9851
▁birdie	-9852
▁chapel	-9853
▁faster	-9854
▁furrow	-9855
▁grains	-9856
▁hearts	-9857
▁hoagie	-9858
▁leizan	-9859
▁result	-9860
▁runing	-9861
▁sheeps	-9862
▁stucks	-9863
▁suited	-9864
▁theres	-9865
▁untang	-9866
▁usindo	-9867
▁beached	-9868
▁beating	-9869
▁brocoli	-9870
▁draught	-9871
▁fedoras	-9872
▁forming	-9873
▁handsaw	-9874
▁hygenie	-9875
▁inspect	-9876
▁matches	-9877
▁nudging	-9878
▁rackett	-9879
▁roasted	-9880
▁seattle	-9881
▁species	-9882
▁standig	-9883
▁wonders	-9884
decorated	-9885
▁agitated	-9886
▁blinders	-9887
▁blossoms	-9888
▁boundary	-9889
▁bouquets	-9890
▁bracelet	-9891
▁bringing	-9892
▁bristles	-9893
▁brokerly	-9894
▁brooklyn	-9895
▁brownies	-9896
▁buckskin	-9897
▁buldings	-9898
▁buliding	-9899
▁arc	-9900
▁tye	-9901
cords	-9902
▁aqua	-9903
▁dude	-9904
▁fare	-9905
▁fees	-9906
▁goup	-9907
▁lock	-9908
▁loss	-9909
▁mono	-9910
▁outs	-9911
▁pate	-9912
▁pong	-9913
▁proj	-9914
▁rags	-9915
▁sari	-9916
▁wint	-9917
league	-9918
veling	-9919
▁allow	-9920
▁breed	-9921
▁doggy	-9922
▁flame	-9923
▁hates	-9924
▁hilll	-9925
▁hitch	-9926
▁lodge	-9927
▁scone	-9928
▁shock	-9929
▁spare	-9930
▁trike	-9931
▁whare	-9932
reading	-9933
▁acting	-9934
▁arcade	-9935
▁bigges	-9936
▁browns	-9937
▁coated	-9938
▁crossb	-9939
▁driven	-9940
▁editor	-9941
▁entree	-9942
▁filing	-9943
▁garter	-9944
▁	-9945
a	-9946
e	-9947
t	-9948
n	-9949
o	-9950
i	-9951
r	-9952
s	-9953
l	-9954
h	-9955
d	-9956
g	-9957
c	-9958
p	-9959
w	-9960
b	-9961
f	-9962
u	-9963
m	-9964
.	-9965
k	-9966
y	-9967
v	-9968
z	-9969
x	-9970
,	-9971
j	-9972
q	-9973
'	-9974
-	-9975
"	-9976
2	-9977
1	-9978
0	-9979
4	-9980
3	-9981
5	-9982
/	-9983
:	-9984
9	-9985
8	-9986
6	-9987
7	-9988
;	-9989
?	-9990
&	-9991
!	-9992
#	-9993
(	-9994
)	-9995
]	-9996
